{
  "version": "1.0",
  "truncation": null,
  "padding": null,
  "added_tokens": [
    {
      "id": 0,
      "content": "[UNK]",
      "single_word": false,
      "lstrip": false,
      "rstrip": false,
      "normalized": false,
      "special": true
    },
    {
      "id": 1,
      "content": "[PAD]",
      "single_word": false,
      "lstrip": false,
      "rstrip": false,
      "normalized": false,
      "special": true
    },
    {
      "id": 2,
      "content": "[CLS]",
      "single_word": false,
      "lstrip": false,
      "rstrip": false,
      "normalized": false,
      "special": true
    },
    {
      "id": 3,
      "content": "[SEP]",
      "single_word": false,
      "lstrip": false,
      "rstrip": false,
      "normalized": false,
      "special": true
    },
    {
      "id": 4,
      "content": "[MASK]",
      "single_word": false,
      "lstrip": false,
      "rstrip": false,
      "normalized": false,
      "special": true
    }
  ],
  "normalizer": null,
  "pre_tokenizer": {
    "type": "Whitespace"
  },
  "post_processor": {
    "type": "TemplateProcessing",
    "single": [
      {
        "Sequence": {
          "id": "A",
          "type_id": 0
        }
      }
    ],
    "pair": [
      {
        "Sequence": {
          "id": "A",
          "type_id": 0
        }
      },
      {
        "Sequence": {
          "id": "B",
          "type_id": 1
        }
      }
    ],
    "special_tokens": {}
  },
  "decoder": null,
  "model": {
    "type": "BPE",
    "dropout": null,
    "unk_token": "[UNK]",
    "continuing_subword_prefix": null,
    "end_of_word_suffix": null,
    "fuse_unk": false,
    "byte_fallback": false,
    "ignore_merges": false,
    "vocab": {
      "[UNK]": 0,
      "[PAD]": 1,
      "[CLS]": 2,
      "[SEP]": 3,
      "[MASK]": 4,
      "\b": 5,
      "!": 6,
      "\"": 7,
      "#": 8,
      "$": 9,
      "%": 10,
      "&": 11,
      "'": 12,
      "(": 13,
      ")": 14,
      "*": 15,
      "+": 16,
      ",": 17,
      "-": 18,
      ".": 19,
      "/": 20,
      "0": 21,
      "1": 22,
      "2": 23,
      "3": 24,
      "4": 25,
      "5": 26,
      "6": 27,
      "7": 28,
      "8": 29,
      "9": 30,
      ":": 31,
      ";": 32,
      "<": 33,
      "=": 34,
      ">": 35,
      "?": 36,
      "@": 37,
      "A": 38,
      "B": 39,
      "C": 40,
      "D": 41,
      "E": 42,
      "F": 43,
      "G": 44,
      "H": 45,
      "I": 46,
      "J": 47,
      "K": 48,
      "L": 49,
      "M": 50,
      "N": 51,
      "O": 52,
      "P": 53,
      "Q": 54,
      "R": 55,
      "S": 56,
      "T": 57,
      "U": 58,
      "V": 59,
      "W": 60,
      "X": 61,
      "Y": 62,
      "Z": 63,
      "[": 64,
      "\\": 65,
      "]": 66,
      "^": 67,
      "_": 68,
      "`": 69,
      "a": 70,
      "b": 71,
      "c": 72,
      "d": 73,
      "e": 74,
      "f": 75,
      "g": 76,
      "h": 77,
      "i": 78,
      "j": 79,
      "k": 80,
      "l": 81,
      "m": 82,
      "n": 83,
      "o": 84,
      "p": 85,
      "q": 86,
      "r": 87,
      "s": 88,
      "t": 89,
      "u": 90,
      "v": 91,
      "w": 92,
      "x": 93,
      "y": 94,
      "z": 95,
      "{": 96,
      "|": 97,
      "}": 98,
      "~": 99,
      "": 100,
      "": 101,
      "": 102,
      "¡": 103,
      "¢": 104,
      "£": 105,
      "¤": 106,
      "¥": 107,
      "§": 108,
      "¨": 109,
      "©": 110,
      "ª": 111,
      "«": 112,
      "¬": 113,
      "­": 114,
      "®": 115,
      "¯": 116,
      "°": 117,
      "±": 118,
      "²": 119,
      "³": 120,
      "´": 121,
      "µ": 122,
      "·": 123,
      "¸": 124,
      "¹": 125,
      "º": 126,
      "»": 127,
      "¼": 128,
      "½": 129,
      "¾": 130,
      "¿": 131,
      "À": 132,
      "Á": 133,
      "Â": 134,
      "Ã": 135,
      "Ä": 136,
      "Å": 137,
      "Æ": 138,
      "Ç": 139,
      "È": 140,
      "É": 141,
      "Ê": 142,
      "Ì": 143,
      "Í": 144,
      "Î": 145,
      "Ð": 146,
      "Ñ": 147,
      "Ó": 148,
      "Ô": 149,
      "Õ": 150,
      "Ö": 151,
      "×": 152,
      "Ø": 153,
      "Ú": 154,
      "Û": 155,
      "Ü": 156,
      "Þ": 157,
      "ß": 158,
      "à": 159,
      "á": 160,
      "â": 161,
      "ã": 162,
      "ä": 163,
      "å": 164,
      "æ": 165,
      "ç": 166,
      "è": 167,
      "é": 168,
      "ê": 169,
      "ë": 170,
      "ì": 171,
      "í": 172,
      "î": 173,
      "ï": 174,
      "ð": 175,
      "ñ": 176,
      "ò": 177,
      "ó": 178,
      "ô": 179,
      "õ": 180,
      "ö": 181,
      "÷": 182,
      "ø": 183,
      "ù": 184,
      "ú": 185,
      "û": 186,
      "ü": 187,
      "ý": 188,
      "þ": 189,
      "ÿ": 190,
      "Ā": 191,
      "ā": 192,
      "Ă": 193,
      "ă": 194,
      "ą": 195,
      "ć": 196,
      "ĉ": 197,
      "Ċ": 198,
      "ċ": 199,
      "Č": 200,
      "č": 201,
      "ď": 202,
      "Đ": 203,
      "đ": 204,
      "Ē": 205,
      "ē": 206,
      "ĕ": 207,
      "ė": 208,
      "ę": 209,
      "ě": 210,
      "Ĝ": 211,
      "ĝ": 212,
      "ğ": 213,
      "Ġ": 214,
      "ġ": 215,
      "Ģ": 216,
      "ĥ": 217,
      "Ħ": 218,
      "ħ": 219,
      "Ĩ": 220,
      "ĩ": 221,
      "Ī": 222,
      "ī": 223,
      "ĭ": 224,
      "į": 225,
      "İ": 226,
      "ı": 227,
      "ĵ": 228,
      "Ķ": 229,
      "Ļ": 230,
      "ļ": 231,
      "Ľ": 232,
      "Ł": 233,
      "ł": 234,
      "ń": 235,
      "Ņ": 236,
      "ņ": 237,
      "ň": 238,
      "ŋ": 239,
      "Ō": 240,
      "ō": 241,
      "ŏ": 242,
      "Ő": 243,
      "ő": 244,
      "Œ": 245,
      "œ": 246,
      "ŕ": 247,
      "Ř": 248,
      "ř": 249,
      "Ś": 250,
      "ś": 251,
      "Ŝ": 252,
      "ŝ": 253,
      "Ş": 254,
      "ş": 255,
      "Š": 256,
      "š": 257,
      "Ţ": 258,
      "ţ": 259,
      "ť": 260,
      "Ū": 261,
      "ū": 262,
      "ŭ": 263,
      "ů": 264,
      "Ű": 265,
      "ű": 266,
      "ų": 267,
      "Ŷ": 268,
      "ŷ": 269,
      "ź": 270,
      "Ż": 271,
      "ż": 272,
      "Ž": 273,
      "ž": 274,
      "Ə": 275,
      "ƒ": 276,
      "Ɣ": 277,
      "ơ": 278,
      "ư": 279,
      "Ʒ": 280,
      "ƿ": 281,
      "ǀ": 282,
      "ǎ": 283,
      "ǐ": 284,
      "ǒ": 285,
      "ǔ": 286,
      "ǜ": 287,
      "ǣ": 288,
      "ǧ": 289,
      "ǫ": 290,
      "ǵ": 291,
      "ǹ": 292,
      "Ș": 293,
      "ș": 294,
      "Ț": 295,
      "ț": 296,
      "ȝ": 297,
      "ȷ": 298,
      "ɐ": 299,
      "ɑ": 300,
      "ɒ": 301,
      "ɔ": 302,
      "ɕ": 303,
      "ɘ": 304,
      "ə": 305,
      "ɛ": 306,
      "ɜ": 307,
      "ɟ": 308,
      "ɡ": 309,
      "ɣ": 310,
      "ɤ": 311,
      "ɦ": 312,
      "ɨ": 313,
      "ɪ": 314,
      "ɫ": 315,
      "ɬ": 316,
      "ɯ": 317,
      "ɲ": 318,
      "ɹ": 319,
      "ɽ": 320,
      "ɾ": 321,
      "ʀ": 322,
      "ʁ": 323,
      "ʃ": 324,
      "ʈ": 325,
      "ʊ": 326,
      "ʋ": 327,
      "ʌ": 328,
      "ʎ": 329,
      "ʏ": 330,
      "ʒ": 331,
      "ʔ": 332,
      "ʕ": 333,
      "ʝ": 334,
      "ʤ": 335,
      "ʦ": 336,
      "ʰ": 337,
      "ʱ": 338,
      "ʲ": 339,
      "ʷ": 340,
      "ʸ": 341,
      "ʹ": 342,
      "ʻ": 343,
      "ʼ": 344,
      "ʽ": 345,
      "ʾ": 346,
      "ʿ": 347,
      "ˀ": 348,
      "ˁ": 349,
      "ˈ": 350,
      "ˉ": 351,
      "ˌ": 352,
      "ː": 353,
      "ˑ": 354,
      "˘": 355,
      "˚": 356,
      "ˠ": 357,
      "ˣ": 358,
      "ˤ": 359,
      "˧": 360,
      "˨": 361,
      "̀": 362,
      "́": 363,
      "̃": 364,
      "̅": 365,
      "̈": 366,
      "̉": 367,
      "̊": 368,
      "̓": 369,
      "̞": 370,
      "̠": 371,
      "̥": 372,
      "̩": 373,
      "̪": 374,
      "̯": 375,
      "̲": 376,
      "̺": 377,
      "͡": 378,
      "΄": 379,
      "Ά": 380,
      "Έ": 381,
      "ΐ": 382,
      "Α": 383,
      "Β": 384,
      "Γ": 385,
      "Δ": 386,
      "Ε": 387,
      "Ζ": 388,
      "Η": 389,
      "Θ": 390,
      "Ι": 391,
      "Κ": 392,
      "Λ": 393,
      "Μ": 394,
      "Ν": 395,
      "Ξ": 396,
      "Ο": 397,
      "Π": 398,
      "Ρ": 399,
      "Σ": 400,
      "Τ": 401,
      "Υ": 402,
      "Φ": 403,
      "Χ": 404,
      "Ψ": 405,
      "Ω": 406,
      "ά": 407,
      "έ": 408,
      "ή": 409,
      "ί": 410,
      "α": 411,
      "β": 412,
      "γ": 413,
      "δ": 414,
      "ε": 415,
      "ζ": 416,
      "η": 417,
      "θ": 418,
      "ι": 419,
      "κ": 420,
      "λ": 421,
      "μ": 422,
      "ν": 423,
      "ξ": 424,
      "ο": 425,
      "π": 426,
      "ρ": 427,
      "ς": 428,
      "σ": 429,
      "τ": 430,
      "υ": 431,
      "φ": 432,
      "χ": 433,
      "ψ": 434,
      "ω": 435,
      "ϊ": 436,
      "ό": 437,
      "ύ": 438,
      "ώ": 439,
      "ϐ": 440,
      "ϑ": 441,
      "ϕ": 442,
      "ϝ": 443,
      "Ϣ": 444,
      "ϣ": 445,
      "Ϥ": 446,
      "ϥ": 447,
      "Ϧ": 448,
      "Ϩ": 449,
      "Ϫ": 450,
      "Ϭ": 451,
      "Ϯ": 452,
      "ϯ": 453,
      "Ђ": 454,
      "Є": 455,
      "І": 456,
      "Ї": 457,
      "Ј": 458,
      "Љ": 459,
      "Њ": 460,
      "Ћ": 461,
      "Ў": 462,
      "Џ": 463,
      "А": 464,
      "Б": 465,
      "В": 466,
      "Г": 467,
      "Д": 468,
      "Е": 469,
      "Ж": 470,
      "З": 471,
      "И": 472,
      "Й": 473,
      "К": 474,
      "Л": 475,
      "М": 476,
      "Н": 477,
      "О": 478,
      "П": 479,
      "Р": 480,
      "С": 481,
      "Т": 482,
      "У": 483,
      "Ф": 484,
      "Х": 485,
      "Ц": 486,
      "Ч": 487,
      "Ш": 488,
      "Щ": 489,
      "Ъ": 490,
      "Ы": 491,
      "Ь": 492,
      "Ю": 493,
      "Я": 494,
      "а": 495,
      "б": 496,
      "в": 497,
      "г": 498,
      "д": 499,
      "е": 500,
      "ж": 501,
      "з": 502,
      "и": 503,
      "й": 504,
      "к": 505,
      "л": 506,
      "м": 507,
      "н": 508,
      "о": 509,
      "п": 510,
      "р": 511,
      "с": 512,
      "т": 513,
      "у": 514,
      "ф": 515,
      "х": 516,
      "ц": 517,
      "ч": 518,
      "ш": 519,
      "щ": 520,
      "ъ": 521,
      "ы": 522,
      "ь": 523,
      "э": 524,
      "ю": 525,
      "я": 526,
      "ё": 527,
      "ђ": 528,
      "є": 529,
      "ѕ": 530,
      "і": 531,
      "ї": 532,
      "ј": 533,
      "љ": 534,
      "ћ": 535,
      "ќ": 536,
      "ў": 537,
      "ѣ": 538,
      "ѥ": 539,
      "ѧ": 540,
      "Ѵ": 541,
      "Ґ": 542,
      "ғ": 543,
      "Қ": 544,
      "қ": 545,
      "ҡ": 546,
      "ң": 547,
      "ҧ": 548,
      "ү": 549,
      "ҷ": 550,
      "Ӏ": 551,
      "ә": 552,
      "Ө": 553,
      "ө": 554,
      "Ա": 555,
      "Բ": 556,
      "Դ": 557,
      "Ե": 558,
      "Թ": 559,
      "Լ": 560,
      "Կ": 561,
      "Հ": 562,
      "Ղ": 563,
      "Մ": 564,
      "Ռ": 565,
      "Փ": 566,
      "Ք": 567,
      "ա": 568,
      "բ": 569,
      "դ": 570,
      "ե": 571,
      "է": 572,
      "թ": 573,
      "ի": 574,
      "լ": 575,
      "խ": 576,
      "կ": 577,
      "հ": 578,
      "ղ": 579,
      "մ": 580,
      "յ": 581,
      "ն": 582,
      "շ": 583,
      "ո": 584,
      "չ": 585,
      "ռ": 586,
      "ս": 587,
      "վ": 588,
      "տ": 589,
      "ր": 590,
      "ց": 591,
      "ւ": 592,
      "ք": 593,
      "և": 594,
      "֏": 595,
      "ְ": 596,
      "ֱ": 597,
      "ֲ": 598,
      "ִ": 599,
      "ֵ": 600,
      "ֶ": 601,
      "ַ": 602,
      "ָ": 603,
      "ֹ": 604,
      "ֻ": 605,
      "ּ": 606,
      "־": 607,
      "ׁ": 608,
      "ׂ": 609,
      "׃": 610,
      "א": 611,
      "ב": 612,
      "ג": 613,
      "ד": 614,
      "ה": 615,
      "ו": 616,
      "ז": 617,
      "ח": 618,
      "ט": 619,
      "י": 620,
      "ך": 621,
      "כ": 622,
      "ל": 623,
      "ם": 624,
      "מ": 625,
      "ן": 626,
      "נ": 627,
      "ס": 628,
      "ע": 629,
      "ף": 630,
      "פ": 631,
      "ץ": 632,
      "צ": 633,
      "ק": 634,
      "ר": 635,
      "ש": 636,
      "ת": 637,
      "ײ": 638,
      "״": 639,
      "،": 640,
      "ؐ": 641,
      "؛": 642,
      "؜": 643,
      "؟": 644,
      "ء": 645,
      "آ": 646,
      "أ": 647,
      "ؤ": 648,
      "إ": 649,
      "ئ": 650,
      "ا": 651,
      "ب": 652,
      "ة": 653,
      "ت": 654,
      "ث": 655,
      "ج": 656,
      "ح": 657,
      "خ": 658,
      "د": 659,
      "ذ": 660,
      "ر": 661,
      "ز": 662,
      "س": 663,
      "ش": 664,
      "ص": 665,
      "ض": 666,
      "ط": 667,
      "ظ": 668,
      "ع": 669,
      "غ": 670,
      "ػ": 671,
      "ؿ": 672,
      "ـ": 673,
      "ف": 674,
      "ق": 675,
      "ك": 676,
      "ل": 677,
      "م": 678,
      "ن": 679,
      "ه": 680,
      "و": 681,
      "ى": 682,
      "ي": 683,
      "ً": 684,
      "ٌ": 685,
      "ٍ": 686,
      "َ": 687,
      "ُ": 688,
      "ِ": 689,
      "ّ": 690,
      "ْ": 691,
      "ٓ": 692,
      "ٔ": 693,
      "ٕ": 694,
      "ٖ": 695,
      "ٗ": 696,
      "ٙ": 697,
      "ٚ": 698,
      "ٞ": 699,
      "٠": 700,
      "١": 701,
      "٢": 702,
      "٣": 703,
      "٤": 704,
      "٥": 705,
      "٦": 706,
      "٧": 707,
      "٨": 708,
      "٩": 709,
      "٪": 710,
      "٫": 711,
      "٬": 712,
      "٭": 713,
      "ٰ": 714,
      "ٱ": 715,
      "ٲ": 716,
      "ٳ": 717,
      "ٹ": 718,
      "ٺ": 719,
      "ٻ": 720,
      "پ": 721,
      "ٿ": 722,
      "ځ": 723,
      "ڃ": 724,
      "چ": 725,
      "ڈ": 726,
      "ڌ": 727,
      "ڑ": 728,
      "ړ": 729,
      "ڕ": 730,
      "ژ": 731,
      "ڜ": 732,
      "ڠ": 733,
      "ڢ": 734,
      "ڤ": 735,
      "ڥ": 736,
      "ڨ": 737,
      "ک": 738,
      "ڪ": 739,
      "ڬ": 740,
      "ڭ": 741,
      "گ": 742,
      "ڳ": 743,
      "ڵ": 744,
      "ں": 745,
      "ڽ": 746,
      "ھ": 747,
      "ۀ": 748,
      "ہ": 749,
      "ۃ": 750,
      "ۆ": 751,
      "ۇ": 752,
      "ۈ": 753,
      "ۋ": 754,
      "ی": 755,
      "ێ": 756,
      "ۏ": 757,
      "ے": 758,
      "۔": 759,
      "ە": 760,
      "ۖ": 761,
      "ۗ": 762,
      "ۙ": 763,
      "ۚ": 764,
      "۝": 765,
      "۟": 766,
      "۠": 767,
      "ۡ": 768,
      "ۢ": 769,
      "ۤ": 770,
      "ۥ": 771,
      "ۦ": 772,
      "۩": 773,
      "ۭ": 774,
      "۰": 775,
      "۱": 776,
      "۲": 777,
      "۳": 778,
      "۷": 779,
      "۸": 780,
      "۹": 781,
      "ܐ": 782,
      "ܒ": 783,
      "ܓ": 784,
      "ܕ": 785,
      "ܗ": 786,
      "ܘ": 787,
      "ܙ": 788,
      "ܚ": 789,
      "ܛ": 790,
      "ܝ": 791,
      "ܟ": 792,
      "ܠ": 793,
      "ܡ": 794,
      "ܢ": 795,
      "ܣ": 796,
      "ܤ": 797,
      "ܥ": 798,
      "ܦ": 799,
      "ܨ": 800,
      "ܩ": 801,
      "ܪ": 802,
      "ܫ": 803,
      "ܬ": 804,
      "ܰ": 805,
      "ܳ": 806,
      "ܵ": 807,
      "ܶ": 808,
      "ܸ": 809,
      "ܺ": 810,
      "ܼ": 811,
      "݂": 812,
      "ݐ": 813,
      "ݘ": 814,
      "ݙ": 815,
      "ݜ": 816,
      "ݣ": 817,
      "ݪ": 818,
      "ݫ": 819,
      "ݭ": 820,
      "ހ": 821,
      "ނ": 822,
      "ރ": 823,
      "ބ": 824,
      "އ": 825,
      "ވ": 826,
      "މ": 827,
      "ދ": 828,
      "ލ": 829,
      "ގ": 830,
      "ޔ": 831,
      "ޖ": 832,
      "ަ": 833,
      "ާ": 834,
      "ި": 835,
      "ު": 836,
      "ޫ": 837,
      "ެ": 838,
      "ޭ": 839,
      "ް": 840,
      "ߊ": 841,
      "ߋ": 842,
      "ߌ": 843,
      "ߎ": 844,
      "ߐ": 845,
      "ߓ": 846,
      "ߕ": 847,
      "ߖ": 848,
      "ߘ": 849,
      "ߞ": 850,
      "ߡ": 851,
      "ߣ": 852,
      "߬": 853,
      "ࠀ": 854,
      "ࠌ": 855,
      "ࠔ": 856,
      "ࠝ": 857,
      "ࠠ": 858,
      "ࣰ": 859,
      "ࣱ": 860,
      "ࣲ": 861,
      "ऀ": 862,
      "ँ": 863,
      "ं": 864,
      "अ": 865,
      "आ": 866,
      "ई": 867,
      "उ": 868,
      "ओ": 869,
      "क": 870,
      "ख": 871,
      "ग": 872,
      "घ": 873,
      "च": 874,
      "ज": 875,
      "ट": 876,
      "ठ": 877,
      "ड": 878,
      "ण": 879,
      "त": 880,
      "थ": 881,
      "द": 882,
      "ध": 883,
      "न": 884,
      "प": 885,
      "फ": 886,
      "ब": 887,
      "भ": 888,
      "म": 889,
      "य": 890,
      "र": 891,
      "ल": 892,
      "व": 893,
      "श": 894,
      "ष": 895,
      "स": 896,
      "ह": 897,
      "़": 898,
      "ा": 899,
      "ि": 900,
      "ी": 901,
      "ु": 902,
      "ू": 903,
      "ृ": 904,
      "े": 905,
      "ै": 906,
      "ॉ": 907,
      "ो": 908,
      "ौ": 909,
      "्": 910,
      "।": 911,
      "३": 912,
      "ঁ": 913,
      "ং": 914,
      "অ": 915,
      "আ": 916,
      "ই": 917,
      "ঐ": 918,
      "ও": 919,
      "ঔ": 920,
      "ক": 921,
      "খ": 922,
      "গ": 923,
      "ঘ": 924,
      "ঙ": 925,
      "চ": 926,
      "ছ": 927,
      "জ": 928,
      "ট": 929,
      "ঠ": 930,
      "ঢ": 931,
      "ণ": 932,
      "ত": 933,
      "থ": 934,
      "দ": 935,
      "ধ": 936,
      "ন": 937,
      "প": 938,
      "ফ": 939,
      "ব": 940,
      "ভ": 941,
      "ম": 942,
      "য": 943,
      "র": 944,
      "ল": 945,
      "শ": 946,
      "ষ": 947,
      "স": 948,
      "হ": 949,
      "়": 950,
      "া": 951,
      "ি": 952,
      "ী": 953,
      "ু": 954,
      "ূ": 955,
      "ে": 956,
      "ো": 957,
      "্": 958,
      "ৰ": 959,
      "ਕ": 960,
      "ਖ": 961,
      "ਗ": 962,
      "ਜ": 963,
      "ਟ": 964,
      "ਨ": 965,
      "ਪ": 966,
      "ਬ": 967,
      "ਭ": 968,
      "ਮ": 969,
      "ਯ": 970,
      "ਰ": 971,
      "ਸ": 972,
      "ਾ": 973,
      "ਿ": 974,
      "ੀ": 975,
      "ੁ": 976,
      "ੰ": 977,
      "ੱ": 978,
      "ઠ": 979,
      "પ": 980,
      "બ": 981,
      "ા": 982,
      "ુ": 983,
      "ଂ": 984,
      "ଆ": 985,
      "ଊ": 986,
      "କ": 987,
      "ଖ": 988,
      "ଗ": 989,
      "ଙ": 990,
      "ଟ": 991,
      "ଡ": 992,
      "ଣ": 993,
      "ପ": 994,
      "ଭ": 995,
      "ର": 996,
      "ଳ": 997,
      "ଶ": 998,
      "ା": 999,
      "ି": 1000,
      "େ": 1001,
      "୍": 1002,
      "ஃ": 1003,
      "அ": 1004,
      "இ": 1005,
      "ஈ": 1006,
      "க": 1007,
      "ங": 1008,
      "ச": 1009,
      "ட": 1010,
      "ண": 1011,
      "த": 1012,
      "ந": 1013,
      "ன": 1014,
      "ப": 1015,
      "ம": 1016,
      "ய": 1017,
      "ர": 1018,
      "ற": 1019,
      "ல": 1020,
      "ள": 1021,
      "ழ": 1022,
      "வ": 1023,
      "ா": 1024,
      "ி": 1025,
      "ீ": 1026,
      "ு": 1027,
      "ூ": 1028,
      "ை": 1029,
      "ொ": 1030,
      "ோ": 1031,
      "்": 1032,
      "௩": 1033,
      "ం": 1034,
      "గ": 1035,
      "చ": 1036,
      "జ": 1037,
      "త": 1038,
      "మ": 1039,
      "ర": 1040,
      "ల": 1041,
      "ి": 1042,
      "ు": 1043,
      "ూ": 1044,
      "ె": 1045,
      "ో": 1046,
      "్": 1047,
      "ಂ": 1048,
      "ಕ": 1049,
      "ಗ": 1050,
      "ಜ": 1051,
      "ಡ": 1052,
      "ದ": 1053,
      "ನ": 1054,
      "ಪ": 1055,
      "ಬ": 1056,
      "ಮ": 1057,
      "ಯ": 1058,
      "ರ": 1059,
      "ಲ": 1060,
      "ಶ": 1061,
      "ಸ": 1062,
      "ಹ": 1063,
      "ಾ": 1064,
      "ಿ": 1065,
      "ು": 1066,
      "ೆ": 1067,
      "ೊ": 1068,
      "್": 1069,
      "അ": 1070,
      "ട": 1071,
      "ണ": 1072,
      "ത": 1073,
      "പ": 1074,
      "മ": 1075,
      "യ": 1076,
      "ള": 1077,
      "ഴ": 1078,
      "വ": 1079,
      "ാ": 1080,
      "ി": 1081,
      "ു": 1082,
      "െ": 1083,
      "്": 1084,
      "൩": 1085,
      "ං": 1086,
      "ක": 1087,
      "න": 1088,
      "ප": 1089,
      "ම": 1090,
      "ඹ": 1091,
      "ය": 1092,
      "ර": 1093,
      "ල": 1094,
      "ව": 1095,
      "ශ": 1096,
      "හ": 1097,
      "ළ": 1098,
      "්": 1099,
      "ා": 1100,
      "ි": 1101,
      "ී": 1102,
      "ු": 1103,
      "ො": 1104,
      "ก": 1105,
      "ข": 1106,
      "ค": 1107,
      "ง": 1108,
      "จ": 1109,
      "ช": 1110,
      "ฐ": 1111,
      "ฑ": 1112,
      "ฒ": 1113,
      "ณ": 1114,
      "ด": 1115,
      "ต": 1116,
      "ถ": 1117,
      "ท": 1118,
      "ธ": 1119,
      "น": 1120,
      "บ": 1121,
      "ป": 1122,
      "ผ": 1123,
      "พ": 1124,
      "ภ": 1125,
      "ม": 1126,
      "ย": 1127,
      "ร": 1128,
      "ล": 1129,
      "ว": 1130,
      "ศ": 1131,
      "ษ": 1132,
      "ส": 1133,
      "ห": 1134,
      "อ": 1135,
      "ฯ": 1136,
      "ะ": 1137,
      "ั": 1138,
      "า": 1139,
      "ิ": 1140,
      "ี": 1141,
      "ื": 1142,
      "ุ": 1143,
      "ู": 1144,
      "฿": 1145,
      "เ": 1146,
      "แ": 1147,
      "โ": 1148,
      "ไ": 1149,
      "่": 1150,
      "้": 1151,
      "๊": 1152,
      "์": 1153,
      "๓": 1154,
      "ກ": 1155,
      "ງ": 1156,
      "ຊ": 1157,
      "ດ": 1158,
      "ຕ": 1159,
      "ທ": 1160,
      "ນ": 1161,
      "ບ": 1162,
      "ປ": 1163,
      "ພ": 1164,
      "ມ": 1165,
      "ລ": 1166,
      "ວ": 1167,
      "ສ": 1168,
      "ອ": 1169,
      "ະ": 1170,
      "ັ": 1171,
      "າ": 1172,
      "ິ": 1173,
      "ີ": 1174,
      "ື": 1175,
      "ົ": 1176,
      "ເ": 1177,
      "ໄ": 1178,
      "້": 1179,
      "ໍ": 1180,
      "་": 1181,
      "།": 1182,
      "ཀ": 1183,
      "ཁ": 1184,
      "ག": 1185,
      "ང": 1186,
      "ཇ": 1187,
      "ད": 1188,
      "ན": 1189,
      "ཕ": 1190,
      "བ": 1191,
      "མ": 1192,
      "ཟ": 1193,
      "འ": 1194,
      "ཡ": 1195,
      "ར": 1196,
      "ལ": 1197,
      "ས": 1198,
      "ི": 1199,
      "ུ": 1200,
      "ེ": 1201,
      "ོ": 1202,
      "ྒ": 1203,
      "ྱ": 1204,
      "ྲ": 1205,
      "က": 1206,
      "ခ": 1207,
      "င": 1208,
      "ဉ": 1209,
      "န": 1210,
      "ပ": 1211,
      "မ": 1212,
      "ယ": 1213,
      "ဝ": 1214,
      "ဟ": 1215,
      "ါ": 1216,
      "ာ": 1217,
      "ိ": 1218,
      "ေ": 1219,
      "ဲ": 1220,
      "္": 1221,
      "်": 1222,
      "ျ": 1223,
      "ა": 1224,
      "ბ": 1225,
      "გ": 1226,
      "დ": 1227,
      "ე": 1228,
      "ვ": 1229,
      "ზ": 1230,
      "თ": 1231,
      "ი": 1232,
      "კ": 1233,
      "ლ": 1234,
      "მ": 1235,
      "ნ": 1236,
      "ო": 1237,
      "რ": 1238,
      "ს": 1239,
      "ტ": 1240,
      "უ": 1241,
      "ფ": 1242,
      "ქ": 1243,
      "ღ": 1244,
      "შ": 1245,
      "ჩ": 1246,
      "ძ": 1247,
      "ხ": 1248,
      "ᄀ": 1249,
      "ᄁ": 1250,
      "ᄂ": 1251,
      "ᄃ": 1252,
      "ᄄ": 1253,
      "ᄅ": 1254,
      "ᄆ": 1255,
      "ᄇ": 1256,
      "ᄈ": 1257,
      "ᄉ": 1258,
      "ᄊ": 1259,
      "ᄋ": 1260,
      "ᄌ": 1261,
      "ᄍ": 1262,
      "ᄎ": 1263,
      "ᄏ": 1264,
      "ᄐ": 1265,
      "ᄑ": 1266,
      "ᄒ": 1267,
      "ᄓ": 1268,
      "ᄔ": 1269,
      "ᄕ": 1270,
      "ᄖ": 1271,
      "ᄗ": 1272,
      "ᄘ": 1273,
      "ᄙ": 1274,
      "ᄚ": 1275,
      "ᄛ": 1276,
      "ᄜ": 1277,
      "ᄝ": 1278,
      "ᄞ": 1279,
      "ᄟ": 1280,
      "ᄠ": 1281,
      "ᄡ": 1282,
      "ᄢ": 1283,
      "ᄣ": 1284,
      "ᄤ": 1285,
      "ᄥ": 1286,
      "ᄦ": 1287,
      "ᄧ": 1288,
      "ᄨ": 1289,
      "ᄩ": 1290,
      "ᄪ": 1291,
      "ᄫ": 1292,
      "ᄬ": 1293,
      "ᄭ": 1294,
      "ᄮ": 1295,
      "ᄯ": 1296,
      "ᄰ": 1297,
      "ᄱ": 1298,
      "ᄲ": 1299,
      "ᄳ": 1300,
      "ᄴ": 1301,
      "ᄵ": 1302,
      "ᄶ": 1303,
      "ᄷ": 1304,
      "ᄸ": 1305,
      "ᄹ": 1306,
      "ᄺ": 1307,
      "ᄻ": 1308,
      "ᄼ": 1309,
      "ᄽ": 1310,
      "ᄾ": 1311,
      "ᄿ": 1312,
      "ᅀ": 1313,
      "ᅁ": 1314,
      "ᅂ": 1315,
      "ᅃ": 1316,
      "ᅄ": 1317,
      "ᅅ": 1318,
      "ᅆ": 1319,
      "ᅇ": 1320,
      "ᅈ": 1321,
      "ᅉ": 1322,
      "ᅊ": 1323,
      "ᅋ": 1324,
      "ᅌ": 1325,
      "ᅍ": 1326,
      "ᅎ": 1327,
      "ᅏ": 1328,
      "ᅐ": 1329,
      "ᅑ": 1330,
      "ᅒ": 1331,
      "ᅓ": 1332,
      "ᅔ": 1333,
      "ᅕ": 1334,
      "ᅖ": 1335,
      "ᅗ": 1336,
      "ᅘ": 1337,
      "ᅙ": 1338,
      "ᅚ": 1339,
      "ᅛ": 1340,
      "ᅜ": 1341,
      "ᅝ": 1342,
      "ᅞ": 1343,
      "ᅡ": 1344,
      "ᅢ": 1345,
      "ᅣ": 1346,
      "ᅤ": 1347,
      "ᅥ": 1348,
      "ᅦ": 1349,
      "ᅧ": 1350,
      "ᅨ": 1351,
      "ᅩ": 1352,
      "ᅪ": 1353,
      "ᅫ": 1354,
      "ᅬ": 1355,
      "ᅭ": 1356,
      "ᅮ": 1357,
      "ᅯ": 1358,
      "ᅰ": 1359,
      "ᅱ": 1360,
      "ᅲ": 1361,
      "ᅳ": 1362,
      "ᅴ": 1363,
      "ᅵ": 1364,
      "ᅶ": 1365,
      "ᅷ": 1366,
      "ᅸ": 1367,
      "ᅹ": 1368,
      "ᅺ": 1369,
      "ᅻ": 1370,
      "ᅼ": 1371,
      "ᅽ": 1372,
      "ᅾ": 1373,
      "ᅿ": 1374,
      "ᆀ": 1375,
      "ᆁ": 1376,
      "ᆂ": 1377,
      "ᆃ": 1378,
      "ᆄ": 1379,
      "ᆅ": 1380,
      "ᆆ": 1381,
      "ᆇ": 1382,
      "ᆈ": 1383,
      "ᆉ": 1384,
      "ᆊ": 1385,
      "ᆋ": 1386,
      "ᆌ": 1387,
      "ᆍ": 1388,
      "ᆎ": 1389,
      "ᆏ": 1390,
      "ᆐ": 1391,
      "ᆑ": 1392,
      "ᆒ": 1393,
      "ᆓ": 1394,
      "ᆔ": 1395,
      "ᆕ": 1396,
      "ᆖ": 1397,
      "ᆗ": 1398,
      "ᆘ": 1399,
      "ᆙ": 1400,
      "ᆚ": 1401,
      "ᆛ": 1402,
      "ᆜ": 1403,
      "ᆝ": 1404,
      "ᆞ": 1405,
      "ᆟ": 1406,
      "ᆠ": 1407,
      "ᆡ": 1408,
      "ᆢ": 1409,
      "ᆣ": 1410,
      "ᆤ": 1411,
      "ᆥ": 1412,
      "ᆦ": 1413,
      "ᆧ": 1414,
      "ᆨ": 1415,
      "ᆩ": 1416,
      "ᆪ": 1417,
      "ᆫ": 1418,
      "ᆬ": 1419,
      "ᆭ": 1420,
      "ᆮ": 1421,
      "ᆯ": 1422,
      "ᆰ": 1423,
      "ᆱ": 1424,
      "ᆲ": 1425,
      "ᆳ": 1426,
      "ᆴ": 1427,
      "ᆵ": 1428,
      "ᆶ": 1429,
      "ᆷ": 1430,
      "ᆸ": 1431,
      "ᆹ": 1432,
      "ᆺ": 1433,
      "ᆻ": 1434,
      "ᆼ": 1435,
      "ᆽ": 1436,
      "ᆾ": 1437,
      "ᆿ": 1438,
      "ᇀ": 1439,
      "ᇁ": 1440,
      "ᇂ": 1441,
      "ᇃ": 1442,
      "ᇄ": 1443,
      "ᇅ": 1444,
      "ᇆ": 1445,
      "ᇇ": 1446,
      "ᇈ": 1447,
      "ᇉ": 1448,
      "ᇊ": 1449,
      "ᇋ": 1450,
      "ᇌ": 1451,
      "ᇍ": 1452,
      "ᇎ": 1453,
      "ᇏ": 1454,
      "ᇐ": 1455,
      "ᇑ": 1456,
      "ᇒ": 1457,
      "ᇓ": 1458,
      "ᇔ": 1459,
      "ᇕ": 1460,
      "ᇖ": 1461,
      "ᇗ": 1462,
      "ᇘ": 1463,
      "ᇙ": 1464,
      "ᇚ": 1465,
      "ᇛ": 1466,
      "ᇜ": 1467,
      "ᇝ": 1468,
      "ᇞ": 1469,
      "ᇟ": 1470,
      "ᇠ": 1471,
      "ᇡ": 1472,
      "ᇢ": 1473,
      "ᇣ": 1474,
      "ᇤ": 1475,
      "ᇥ": 1476,
      "ᇦ": 1477,
      "ᇧ": 1478,
      "ᇨ": 1479,
      "ᇩ": 1480,
      "ᇪ": 1481,
      "ᇫ": 1482,
      "ᇬ": 1483,
      "ᇭ": 1484,
      "ᇮ": 1485,
      "ᇯ": 1486,
      "ᇰ": 1487,
      "ᇱ": 1488,
      "ᇲ": 1489,
      "ᇳ": 1490,
      "ᇴ": 1491,
      "ᇵ": 1492,
      "ᇶ": 1493,
      "ᇷ": 1494,
      "ᇸ": 1495,
      "ᇹ": 1496,
      "ᇺ": 1497,
      "ᇻ": 1498,
      "ᇼ": 1499,
      "ᇽ": 1500,
      "ᇾ": 1501,
      "ᇿ": 1502,
      "ሃ": 1503,
      "ለ": 1504,
      "ሊ": 1505,
      "ል": 1506,
      "ሎ": 1507,
      "ሕ": 1508,
      "ማ": 1509,
      "ም": 1510,
      "ሠ": 1511,
      "ሥ": 1512,
      "ሪ": 1513,
      "ራ": 1514,
      "ር": 1515,
      "ሮ": 1516,
      "ስ": 1517,
      "ሷ": 1518,
      "ሾ": 1519,
      "ቀ": 1520,
      "ቅ": 1521,
      "ቕ": 1522,
      "በ": 1523,
      "ቡ": 1524,
      "ባ": 1525,
      "ብ": 1526,
      "ተ": 1527,
      "ት": 1528,
      "ቶ": 1529,
      "ነ": 1530,
      "ና": 1531,
      "ን": 1532,
      "ኖ": 1533,
      "ኛ": 1534,
      "አ": 1535,
      "ኢ": 1536,
      "ኣ": 1537,
      "ኤ": 1538,
      "ከ": 1539,
      "ክ": 1540,
      "ወ": 1541,
      "ዘ": 1542,
      "ያ": 1543,
      "ይ": 1544,
      "ዮ": 1545,
      "ደ": 1546,
      "ዲ": 1547,
      "ዳ": 1548,
      "ዴ": 1549,
      "ድ": 1550,
      "ጃ": 1551,
      "ገ": 1552,
      "ጉ": 1553,
      "ጊ": 1554,
      "ጋ": 1555,
      "ግ": 1556,
      "ጵ": 1557,
      "ፊ": 1558,
      "ፋ": 1559,
      "ፐ": 1560,
      "Ꭳ": 1561,
      "Ꭷ": 1562,
      "Ꮀ": 1563,
      "Ꮃ": 1564,
      "Ꮉ": 1565,
      "ᐃ": 1566,
      "ᐊ": 1567,
      "ᐘ": 1568,
      "ᐢ": 1569,
      "ᐩ": 1570,
      "ᐱ": 1571,
      "ᑦ": 1572,
      "ᑭ": 1573,
      "ᑳ": 1574,
      "ᒋ": 1575,
      "ᒾ": 1576,
      "ᓂ": 1577,
      "ᓄ": 1578,
      "ᓇ": 1579,
      "ᓯ": 1580,
      "ᓰ": 1581,
      "ᖅ": 1582,
      "ᚼ": 1583,
      "ᛒ": 1584,
      "ក": 1585,
      "ខ": 1586,
      "ង": 1587,
      "ជ": 1588,
      "ណ": 1589,
      "ត": 1590,
      "ទ": 1591,
      "ន": 1592,
      "ប": 1593,
      "ព": 1594,
      "ម": 1595,
      "រ": 1596,
      "ល": 1597,
      "ស": 1598,
      "ា": 1599,
      "ឹ": 1600,
      "ុ": 1601,
      "ូ": 1602,
      "េ": 1603,
      "ែ": 1604,
      "ំ": 1605,
      "់": 1606,
      "្": 1607,
      "ᠢ": 1608,
      "ᠤ": 1609,
      "ᠦ": 1610,
      "ᠨ": 1611,
      "ᠬ": 1612,
      "ᠭ": 1613,
      "ᠯ": 1614,
      "ᠰ": 1615,
      "ᵍ": 1616,
      "ᶜ": 1617,
      "ḃ": 1618,
      "ḍ": 1619,
      "ḏ": 1620,
      "ḕ": 1621,
      "ḗ": 1622,
      "Ḥ": 1623,
      "ḥ": 1624,
      "ḩ": 1625,
      "ḫ": 1626,
      "ḱ": 1627,
      "Ḵ": 1628,
      "ḵ": 1629,
      "ṃ": 1630,
      "Ṇ": 1631,
      "ṇ": 1632,
      "ṉ": 1633,
      "ṓ": 1634,
      "ṟ": 1635,
      "Ṣ": 1636,
      "ṣ": 1637,
      "Ṭ": 1638,
      "ṭ": 1639,
      "ṯ": 1640,
      "ẓ": 1641,
      "ẖ": 1642,
      "ạ": 1643,
      "ả": 1644,
      "ấ": 1645,
      "ầ": 1646,
      "ậ": 1647,
      "ắ": 1648,
      "ẹ": 1649,
      "Ẽ": 1650,
      "ẽ": 1651,
      "ế": 1652,
      "ệ": 1653,
      "ị": 1654,
      "Ọ": 1655,
      "ọ": 1656,
      "ố": 1657,
      "ồ": 1658,
      "ộ": 1659,
      "ớ": 1660,
      "ỡ": 1661,
      "ụ": 1662,
      "ủ": 1663,
      "ừ": 1664,
      "Ỹ": 1665,
      "ỹ": 1666,
      "ἀ": 1667,
      "ἄ": 1668,
      "ἅ": 1669,
      "Ἀ": 1670,
      "Ἄ": 1671,
      "ἐ": 1672,
      "ἑ": 1673,
      "ἔ": 1674,
      "ἕ": 1675,
      "Ἐ": 1676,
      "Ἑ": 1677,
      "Ἔ": 1678,
      "Ἕ": 1679,
      "ἡ": 1680,
      "ἤ": 1681,
      "ἥ": 1682,
      "Ἡ": 1683,
      "ἰ": 1684,
      "ἱ": 1685,
      "ἴ": 1686,
      "ἵ": 1687,
      "ἶ": 1688,
      "ἷ": 1689,
      "Ἰ": 1690,
      "Ἱ": 1691,
      "Ἴ": 1692,
      "Ἶ": 1693,
      "ὀ": 1694,
      "ὁ": 1695,
      "ὄ": 1696,
      "ὅ": 1697,
      "Ὀ": 1698,
      "Ὁ": 1699,
      "Ὂ": 1700,
      "Ὅ": 1701,
      "ὐ": 1702,
      "ὑ": 1703,
      "ὔ": 1704,
      "ὕ": 1705,
      "ὖ": 1706,
      "Ὕ": 1707,
      "ὠ": 1708,
      "ὤ": 1709,
      "Ὠ": 1710,
      "ὰ": 1711,
      "ὲ": 1712,
      "ὴ": 1713,
      "ὶ": 1714,
      "ὸ": 1715,
      "ὼ": 1716,
      "ᾍ": 1717,
      "ᾰ": 1718,
      "ᾱ": 1719,
      "ᾶ": 1720,
      "ῆ": 1721,
      "ῖ": 1722,
      "ῡ": 1723,
      "ῤ": 1724,
      "ῥ": 1725,
      "ῦ": 1726,
      "Ῥ": 1727,
      "ῴ": 1728,
      "ῶ": 1729,
      "ῷ": 1730,
      "​": 1731,
      "‌": 1732,
      "‍": 1733,
      "‎": 1734,
      "‏": 1735,
      "‑": 1736,
      "‒": 1737,
      "–": 1738,
      "—": 1739,
      "―": 1740,
      "‖": 1741,
      "‘": 1742,
      "’": 1743,
      "‚": 1744,
      "“": 1745,
      "”": 1746,
      "„": 1747,
      "‟": 1748,
      "†": 1749,
      "‡": 1750,
      "•": 1751,
      "…": 1752,
      "‫": 1753,
      "‬": 1754,
      "‰": 1755,
      "′": 1756,
      "″": 1757,
      "‹": 1758,
      "›": 1759,
      "‿": 1760,
      "⁄": 1761,
      "⁇": 1762,
      "⁠": 1763,
      "⁦": 1764,
      "⁧": 1765,
      "⁩": 1766,
      "⁪": 1767,
      "⁬": 1768,
      "⁰": 1769,
      "⁴": 1770,
      "⁵": 1771,
      "⁸": 1772,
      "⁹": 1773,
      "ⁿ": 1774,
      "₁": 1775,
      "₂": 1776,
      "₃": 1777,
      "₣": 1778,
      "₤": 1779,
      "₥": 1780,
      "₦": 1781,
      "₪": 1782,
      "€": 1783,
      "₭": 1784,
      "₮": 1785,
      "₱": 1786,
      "₹": 1787,
      "₼": 1788,
      "℃": 1789,
      "℅": 1790,
      "℉": 1791,
      "ℊ": 1792,
      "ℎ": 1793,
      "ℏ": 1794,
      "ℑ": 1795,
      "ℓ": 1796,
      "№": 1797,
      "ℜ": 1798,
      "ℝ": 1799,
      "™": 1800,
      "ℤ": 1801,
      "⅓": 1802,
      "⅔": 1803,
      "⅛": 1804,
      "⅞": 1805,
      "←": 1806,
      "↑": 1807,
      "→": 1808,
      "↓": 1809,
      "↔": 1810,
      "↦": 1811,
      "↹": 1812,
      "⇌": 1813,
      "⇐": 1814,
      "⇒": 1815,
      "⇔": 1816,
      "⇝": 1817,
      "⇧": 1818,
      "∂": 1819,
      "∆": 1820,
      "∇": 1821,
      "∈": 1822,
      "∉": 1823,
      "∎": 1824,
      "∑": 1825,
      "−": 1826,
      "∗": 1827,
      "∘": 1828,
      "√": 1829,
      "∞": 1830,
      "∠": 1831,
      "∧": 1832,
      "∨": 1833,
      "∪": 1834,
      "≃": 1835,
      "≅": 1836,
      "≈": 1837,
      "≠": 1838,
      "≡": 1839,
      "≤": 1840,
      "≥": 1841,
      "≪": 1842,
      "≫": 1843,
      "⊆": 1844,
      "⊕": 1845,
      "⊙": 1846,
      "⊥": 1847,
      "⋅": 1848,
      "⋿": 1849,
      "⌊": 1850,
      "⌋": 1851,
      "⌬": 1852,
      "ⓘ": 1853,
      "┐": 1854,
      "┒": 1855,
      "┤": 1856,
      "■": 1857,
      "▪": 1858,
      "►": 1859,
      "◄": 1860,
      "◊": 1861,
      "○": 1862,
      "◌": 1863,
      "●": 1864,
      "◦": 1865,
      "☆": 1866,
      "☉": 1867,
      "☓": 1868,
      "♀": 1869,
      "♂": 1870,
      "♉": 1871,
      "♔": 1872,
      "♕": 1873,
      "♖": 1874,
      "♗": 1875,
      "♙": 1876,
      "♚": 1877,
      "♛": 1878,
      "♜": 1879,
      "♝": 1880,
      "♟": 1881,
      "♠": 1882,
      "♣": 1883,
      "♥": 1884,
      "♦": 1885,
      "♭": 1886,
      "♮": 1887,
      "♯": 1888,
      "⚔": 1889,
      "⛢": 1890,
      "✚": 1891,
      "✝": 1892,
      "✡": 1893,
      "❤": 1894,
      "❪": 1895,
      "❫": 1896,
      "➖": 1897,
      "⟨": 1898,
      "⟩": 1899,
      "⟶": 1900,
      "⭐": 1901,
      "ⲁ": 1902,
      "ⲃ": 1903,
      "Ⲇ": 1904,
      "Ⲉ": 1905,
      "ⲉ": 1906,
      "ⲋ": 1907,
      "Ⲏ": 1908,
      "ⲏ": 1909,
      "ⲑ": 1910,
      "ⲓ": 1911,
      "ⲕ": 1912,
      "ⲗ": 1913,
      "ⲙ": 1914,
      "Ⲛ": 1915,
      "ⲛ": 1916,
      "ⲟ": 1917,
      "Ⲡ": 1918,
      "ⲡ": 1919,
      "Ⲣ": 1920,
      "ⲣ": 1921,
      "Ⲥ": 1922,
      "ⲥ": 1923,
      "ⲧ": 1924,
      "ⲩ": 1925,
      "ⲫ": 1926,
      "ⲭ": 1927,
      "ⲱ": 1928,
      "ⴰ": 1929,
      "ⴱ": 1930,
      "ⴲ": 1931,
      "ⴳ": 1932,
      "ⴶ": 1933,
      "ⴷ": 1934,
      "ⴹ": 1935,
      "ⴺ": 1936,
      "ⴻ": 1937,
      "ⴼ": 1938,
      "ⴽ": 1939,
      "ⴾ": 1940,
      "ⵀ": 1941,
      "ⵃ": 1942,
      "ⵄ": 1943,
      "ⵇ": 1944,
      "ⵈ": 1945,
      "ⵉ": 1946,
      "ⵊ": 1947,
      "ⵍ": 1948,
      "ⵎ": 1949,
      "ⵏ": 1950,
      "ⵓ": 1951,
      "ⵔ": 1952,
      "ⵕ": 1953,
      "ⵖ": 1954,
      "ⵗ": 1955,
      "ⵙ": 1956,
      "ⵚ": 1957,
      "ⵛ": 1958,
      "ⵜ": 1959,
      "ⵝ": 1960,
      "ⵟ": 1961,
      "ⵡ": 1962,
      "ⵢ": 1963,
      "ⵣ": 1964,
      "ⵯ": 1965,
      "⸵": 1966,
      "、": 1967,
      "。": 1968,
      "々": 1969,
      "〈": 1970,
      "〉": 1971,
      "《": 1972,
      "》": 1973,
      "あ": 1974,
      "い": 1975,
      "う": 1976,
      "え": 1977,
      "お": 1978,
      "か": 1979,
      "が": 1980,
      "き": 1981,
      "ぎ": 1982,
      "く": 1983,
      "け": 1984,
      "げ": 1985,
      "こ": 1986,
      "ご": 1987,
      "さ": 1988,
      "ざ": 1989,
      "し": 1990,
      "じ": 1991,
      "す": 1992,
      "ず": 1993,
      "せ": 1994,
      "そ": 1995,
      "た": 1996,
      "だ": 1997,
      "ち": 1998,
      "っ": 1999,
      "つ": 2000,
      "で": 2001,
      "と": 2002,
      "ど": 2003,
      "な": 2004,
      "に": 2005,
      "の": 2006,
      "は": 2007,
      "ば": 2008,
      "ひ": 2009,
      "び": 2010,
      "ふ": 2011,
      "ぶ": 2012,
      "へ": 2013,
      "べ": 2014,
      "ぼ": 2015,
      "ま": 2016,
      "み": 2017,
      "も": 2018,
      "ゃ": 2019,
      "や": 2020,
      "ゆ": 2021,
      "よ": 2022,
      "ら": 2023,
      "り": 2024,
      "る": 2025,
      "れ": 2026,
      "ろ": 2027,
      "わ": 2028,
      "ゑ": 2029,
      "を": 2030,
      "ん": 2031,
      "ァ": 2032,
      "ア": 2033,
      "ィ": 2034,
      "イ": 2035,
      "ゥ": 2036,
      "ウ": 2037,
      "ェ": 2038,
      "エ": 2039,
      "ォ": 2040,
      "オ": 2041,
      "カ": 2042,
      "ガ": 2043,
      "キ": 2044,
      "ギ": 2045,
      "ク": 2046,
      "グ": 2047,
      "ケ": 2048,
      "ゲ": 2049,
      "コ": 2050,
      "ゴ": 2051,
      "サ": 2052,
      "ザ": 2053,
      "シ": 2054,
      "ジ": 2055,
      "ス": 2056,
      "ズ": 2057,
      "セ": 2058,
      "ゼ": 2059,
      "ソ": 2060,
      "ゾ": 2061,
      "タ": 2062,
      "ダ": 2063,
      "チ": 2064,
      "ッ": 2065,
      "ツ": 2066,
      "テ": 2067,
      "デ": 2068,
      "ト": 2069,
      "ド": 2070,
      "ナ": 2071,
      "ニ": 2072,
      "ヌ": 2073,
      "ハ": 2074,
      "バ": 2075,
      "パ": 2076,
      "ヒ": 2077,
      "ビ": 2078,
      "ピ": 2079,
      "フ": 2080,
      "ブ": 2081,
      "プ": 2082,
      "ヘ": 2083,
      "ベ": 2084,
      "ホ": 2085,
      "ボ": 2086,
      "ポ": 2087,
      "マ": 2088,
      "ミ": 2089,
      "ム": 2090,
      "メ": 2091,
      "モ": 2092,
      "ャ": 2093,
      "ヤ": 2094,
      "ュ": 2095,
      "ユ": 2096,
      "ョ": 2097,
      "ヨ": 2098,
      "ラ": 2099,
      "リ": 2100,
      "ル": 2101,
      "レ": 2102,
      "ロ": 2103,
      "ワ": 2104,
      "ン": 2105,
      "ヴ": 2106,
      "ヶ": 2107,
      "・": 2108,
      "ー": 2109,
      "ㄅ": 2110,
      "ㄆ": 2111,
      "ㄇ": 2112,
      "ㄈ": 2113,
      "ㄉ": 2114,
      "ㄊ": 2115,
      "ㄋ": 2116,
      "ㄌ": 2117,
      "ㄍ": 2118,
      "ㄎ": 2119,
      "ㄏ": 2120,
      "ㄐ": 2121,
      "ㄑ": 2122,
      "ㄒ": 2123,
      "ㄓ": 2124,
      "ㄔ": 2125,
      "ㄕ": 2126,
      "ㄖ": 2127,
      "ㄗ": 2128,
      "ㄘ": 2129,
      "ㄙ": 2130,
      "ㄚ": 2131,
      "ㄛ": 2132,
      "ㄜ": 2133,
      "ㄝ": 2134,
      "ㄞ": 2135,
      "ㄟ": 2136,
      "ㄠ": 2137,
      "ㄡ": 2138,
      "ㄢ": 2139,
      "ㄣ": 2140,
      "ㄤ": 2141,
      "ㄥ": 2142,
      "ㄦ": 2143,
      "ㄧ": 2144,
      "ㄨ": 2145,
      "ㄩ": 2146,
      "ㄱ": 2147,
      "ㄲ": 2148,
      "ㄳ": 2149,
      "ㄴ": 2150,
      "ㄵ": 2151,
      "ㄷ": 2152,
      "ㄸ": 2153,
      "ㄹ": 2154,
      "ㄺ": 2155,
      "ㄻ": 2156,
      "ㄼ": 2157,
      "ㄾ": 2158,
      "ㄿ": 2159,
      "ㅁ": 2160,
      "ㅂ": 2161,
      "ㅃ": 2162,
      "ㅄ": 2163,
      "ㅅ": 2164,
      "ㅆ": 2165,
      "ㅇ": 2166,
      "ㅈ": 2167,
      "ㅉ": 2168,
      "ㅊ": 2169,
      "ㅋ": 2170,
      "ㅌ": 2171,
      "ㅍ": 2172,
      "ㅎ": 2173,
      "ㅏ": 2174,
      "ㅐ": 2175,
      "ㅑ": 2176,
      "ㅒ": 2177,
      "ㅓ": 2178,
      "ㅔ": 2179,
      "ㅕ": 2180,
      "ㅖ": 2181,
      "ㅗ": 2182,
      "ㅘ": 2183,
      "ㅙ": 2184,
      "ㅚ": 2185,
      "ㅛ": 2186,
      "ㅜ": 2187,
      "ㅝ": 2188,
      "ㅞ": 2189,
      "ㅟ": 2190,
      "ㅠ": 2191,
      "ㅡ": 2192,
      "ㅢ": 2193,
      "ㅣ": 2194,
      "ㅤ": 2195,
      "ㅺ": 2196,
      "ㅼ": 2197,
      "ㅽ": 2198,
      "ㅾ": 2199,
      "ㆁ": 2200,
      "ㆍ": 2201,
      "一": 2202,
      "丁": 2203,
      "七": 2204,
      "万": 2205,
      "丈": 2206,
      "三": 2207,
      "上": 2208,
      "下": 2209,
      "不": 2210,
      "与": 2211,
      "丕": 2212,
      "世": 2213,
      "东": 2214,
      "丝": 2215,
      "严": 2216,
      "中": 2217,
      "丰": 2218,
      "丸": 2219,
      "主": 2220,
      "乃": 2221,
      "久": 2222,
      "之": 2223,
      "乌": 2224,
      "乐": 2225,
      "乘": 2226,
      "九": 2227,
      "也": 2228,
      "书": 2229,
      "乱": 2230,
      "了": 2231,
      "争": 2232,
      "事": 2233,
      "二": 2234,
      "于": 2235,
      "云": 2236,
      "互": 2237,
      "五": 2238,
      "井": 2239,
      "亜": 2240,
      "亡": 2241,
      "交": 2242,
      "京": 2243,
      "亮": 2244,
      "亳": 2245,
      "人": 2246,
      "仁": 2247,
      "今": 2248,
      "他": 2249,
      "付": 2250,
      "仙": 2251,
      "仝": 2252,
      "代": 2253,
      "令": 2254,
      "以": 2255,
      "们": 2256,
      "仮": 2257,
      "任": 2258,
      "伊": 2259,
      "伎": 2260,
      "伏": 2261,
      "伐": 2262,
      "休": 2263,
      "会": 2264,
      "伝": 2265,
      "传": 2266,
      "伦": 2267,
      "伯": 2268,
      "位": 2269,
      "住": 2270,
      "佐": 2271,
      "体": 2272,
      "佛": 2273,
      "作": 2274,
      "使": 2275,
      "侍": 2276,
      "依": 2277,
      "侯": 2278,
      "便": 2279,
      "係": 2280,
      "俐": 2281,
      "保": 2282,
      "信": 2283,
      "俳": 2284,
      "俺": 2285,
      "倉": 2286,
      "倒": 2287,
      "借": 2288,
      "値": 2289,
      "倫": 2290,
      "倭": 2291,
      "假": 2292,
      "健": 2293,
      "偵": 2294,
      "備": 2295,
      "僕": 2296,
      "儀": 2297,
      "儒": 2298,
      "優": 2299,
      "儿": 2300,
      "允": 2301,
      "元": 2302,
      "兄": 2303,
      "兆": 2304,
      "先": 2305,
      "光": 2306,
      "克": 2307,
      "児": 2308,
      "党": 2309,
      "入": 2310,
      "八": 2311,
      "公": 2312,
      "六": 2313,
      "共": 2314,
      "关": 2315,
      "兵": 2316,
      "具": 2317,
      "冀": 2318,
      "内": 2319,
      "円": 2320,
      "冇": 2321,
      "冒": 2322,
      "军": 2323,
      "冠": 2324,
      "冷": 2325,
      "凶": 2326,
      "出": 2327,
      "刀": 2328,
      "刃": 2329,
      "分": 2330,
      "切": 2331,
      "列": 2332,
      "初": 2333,
      "別": 2334,
      "利": 2335,
      "别": 2336,
      "刳": 2337,
      "制": 2338,
      "刺": 2339,
      "前": 2340,
      "剛": 2341,
      "剣": 2342,
      "剧": 2343,
      "劇": 2344,
      "劉": 2345,
      "力": 2346,
      "功": 2347,
      "加": 2348,
      "动": 2349,
      "助": 2350,
      "勇": 2351,
      "勉": 2352,
      "勒": 2353,
      "動": 2354,
      "勝": 2355,
      "勢": 2356,
      "包": 2357,
      "化": 2358,
      "北": 2359,
      "匹": 2360,
      "区": 2361,
      "區": 2362,
      "十": 2363,
      "千": 2364,
      "半": 2365,
      "华": 2366,
      "卒": 2367,
      "協": 2368,
      "南": 2369,
      "単": 2370,
      "博": 2371,
      "占": 2372,
      "卡": 2373,
      "历": 2374,
      "厘": 2375,
      "厚": 2376,
      "原": 2377,
      "厥": 2378,
      "厳": 2379,
      "县": 2380,
      "参": 2381,
      "參": 2382,
      "友": 2383,
      "反": 2384,
      "发": 2385,
      "受": 2386,
      "叡": 2387,
      "口": 2388,
      "古": 2389,
      "句": 2390,
      "可": 2391,
      "台": 2392,
      "史": 2393,
      "右": 2394,
      "叶": 2395,
      "号": 2396,
      "司": 2397,
      "合": 2398,
      "吉": 2399,
      "同": 2400,
      "名": 2401,
      "后": 2402,
      "吐": 2403,
      "向": 2404,
      "君": 2405,
      "吟": 2406,
      "吳": 2407,
      "吾": 2408,
      "呂": 2409,
      "呉": 2410,
      "周": 2411,
      "味": 2412,
      "呼": 2413,
      "命": 2414,
      "和": 2415,
      "咖": 2416,
      "哇": 2417,
      "員": 2418,
      "唐": 2419,
      "問": 2420,
      "啡": 2421,
      "善": 2422,
      "喜": 2423,
      "喪": 2424,
      "器": 2425,
      "四": 2426,
      "回": 2427,
      "団": 2428,
      "囲": 2429,
      "図": 2430,
      "国": 2431,
      "圆": 2432,
      "國": 2433,
      "圍": 2434,
      "園": 2435,
      "圓": 2436,
      "圖": 2437,
      "土": 2438,
      "圣": 2439,
      "在": 2440,
      "地": 2441,
      "圳": 2442,
      "场": 2443,
      "坊": 2444,
      "坐": 2445,
      "垂": 2446,
      "型": 2447,
      "垣": 2448,
      "城": 2449,
      "域": 2450,
      "執": 2451,
      "基": 2452,
      "堀": 2453,
      "堂": 2454,
      "堡": 2455,
      "場": 2456,
      "塔": 2457,
      "塘": 2458,
      "塚": 2459,
      "墓": 2460,
      "墨": 2461,
      "墳": 2462,
      "壤": 2463,
      "士": 2464,
      "声": 2465,
      "壳": 2466,
      "変": 2467,
      "夏": 2468,
      "外": 2469,
      "多": 2470,
      "夜": 2471,
      "夢": 2472,
      "大": 2473,
      "天": 2474,
      "太": 2475,
      "夫": 2476,
      "央": 2477,
      "失": 2478,
      "头": 2479,
      "夷": 2480,
      "奇": 2481,
      "奈": 2482,
      "奉": 2483,
      "奐": 2484,
      "奢": 2485,
      "奥": 2486,
      "女": 2487,
      "如": 2488,
      "妉": 2489,
      "妊": 2490,
      "妓": 2491,
      "始": 2492,
      "姑": 2493,
      "委": 2494,
      "姫": 2495,
      "娅": 2496,
      "娘": 2497,
      "婆": 2498,
      "婦": 2499,
      "子": 2500,
      "孔": 2501,
      "字": 2502,
      "孙": 2503,
      "孝": 2504,
      "季": 2505,
      "孤": 2506,
      "学": 2507,
      "孫": 2508,
      "學": 2509,
      "宁": 2510,
      "宅": 2511,
      "宇": 2512,
      "守": 2513,
      "安": 2514,
      "宋": 2515,
      "宗": 2516,
      "官": 2517,
      "宙": 2518,
      "定": 2519,
      "宜": 2520,
      "宝": 2521,
      "实": 2522,
      "宣": 2523,
      "室": 2524,
      "宮": 2525,
      "家": 2526,
      "宾": 2527,
      "富": 2528,
      "寛": 2529,
      "察": 2530,
      "實": 2531,
      "对": 2532,
      "寺": 2533,
      "寿": 2534,
      "将": 2535,
      "將": 2536,
      "尊": 2537,
      "尋": 2538,
      "小": 2539,
      "少": 2540,
      "尔": 2541,
      "尼": 2542,
      "尾": 2543,
      "居": 2544,
      "屋": 2545,
      "履": 2546,
      "山": 2547,
      "岐": 2548,
      "岛": 2549,
      "岡": 2550,
      "岸": 2551,
      "峦": 2552,
      "島": 2553,
      "峻": 2554,
      "崇": 2555,
      "崎": 2556,
      "崑": 2557,
      "崖": 2558,
      "崙": 2559,
      "川": 2560,
      "州": 2561,
      "工": 2562,
      "左": 2563,
      "巩": 2564,
      "已": 2565,
      "巳": 2566,
      "市": 2567,
      "布": 2568,
      "师": 2569,
      "帝": 2570,
      "師": 2571,
      "帯": 2572,
      "常": 2573,
      "幅": 2574,
      "幌": 2575,
      "幕": 2576,
      "幡": 2577,
      "幫": 2578,
      "平": 2579,
      "年": 2580,
      "并": 2581,
      "幸": 2582,
      "幹": 2583,
      "幻": 2584,
      "广": 2585,
      "庁": 2586,
      "広": 2587,
      "庆": 2588,
      "库": 2589,
      "应": 2590,
      "府": 2591,
      "度": 2592,
      "座": 2593,
      "庭": 2594,
      "康": 2595,
      "廃": 2596,
      "廓": 2597,
      "廣": 2598,
      "建": 2599,
      "弈": 2600,
      "式": 2601,
      "弓": 2602,
      "引": 2603,
      "弗": 2604,
      "弘": 2605,
      "弟": 2606,
      "弥": 2607,
      "張": 2608,
      "強": 2609,
      "弾": 2610,
      "当": 2611,
      "形": 2612,
      "影": 2613,
      "彼": 2614,
      "征": 2615,
      "待": 2616,
      "律": 2617,
      "後": 2618,
      "徐": 2619,
      "徒": 2620,
      "得": 2621,
      "御": 2622,
      "徳": 2623,
      "德": 2624,
      "徽": 2625,
      "心": 2626,
      "忍": 2627,
      "忒": 2628,
      "応": 2629,
      "忠": 2630,
      "怀": 2631,
      "思": 2632,
      "怡": 2633,
      "急": 2634,
      "性": 2635,
      "总": 2636,
      "恋": 2637,
      "恐": 2638,
      "恭": 2639,
      "悪": 2640,
      "意": 2641,
      "愛": 2642,
      "慄": 2643,
      "慰": 2644,
      "慶": 2645,
      "戊": 2646,
      "成": 2647,
      "我": 2648,
      "战": 2649,
      "戦": 2650,
      "截": 2651,
      "戯": 2652,
      "戸": 2653,
      "房": 2654,
      "所": 2655,
      "扁": 2656,
      "手": 2657,
      "打": 2658,
      "扬": 2659,
      "承": 2660,
      "投": 2661,
      "折": 2662,
      "抜": 2663,
      "护": 2664,
      "抱": 2665,
      "抹": 2666,
      "拜": 2667,
      "拳": 2668,
      "指": 2669,
      "振": 2670,
      "掛": 2671,
      "探": 2672,
      "推": 2673,
      "揚": 2674,
      "揭": 2675,
      "搾": 2676,
      "摂": 2677,
      "摩": 2678,
      "撃": 2679,
      "撒": 2680,
      "播": 2681,
      "撲": 2682,
      "擊": 2683,
      "操": 2684,
      "支": 2685,
      "改": 2686,
      "攻": 2687,
      "放": 2688,
      "政": 2689,
      "教": 2690,
      "敦": 2691,
      "数": 2692,
      "敷": 2693,
      "文": 2694,
      "斉": 2695,
      "斎": 2696,
      "斗": 2697,
      "料": 2698,
      "斡": 2699,
      "斬": 2700,
      "斯": 2701,
      "新": 2702,
      "方": 2703,
      "於": 2704,
      "施": 2705,
      "旅": 2706,
      "旋": 2707,
      "族": 2708,
      "旗": 2709,
      "日": 2710,
      "旨": 2711,
      "早": 2712,
      "时": 2713,
      "昌": 2714,
      "明": 2715,
      "易": 2716,
      "星": 2717,
      "春": 2718,
      "昭": 2719,
      "是": 2720,
      "時": 2721,
      "晃": 2722,
      "晉": 2723,
      "晋": 2724,
      "普": 2725,
      "景": 2726,
      "智": 2727,
      "暗": 2728,
      "曜": 2729,
      "曳": 2730,
      "更": 2731,
      "書": 2732,
      "曹": 2733,
      "月": 2734,
      "有": 2735,
      "服": 2736,
      "朝": 2737,
      "木": 2738,
      "未": 2739,
      "末": 2740,
      "本": 2741,
      "札": 2742,
      "机": 2743,
      "权": 2744,
      "杉": 2745,
      "李": 2746,
      "杏": 2747,
      "村": 2748,
      "条": 2749,
      "来": 2750,
      "東": 2751,
      "松": 2752,
      "板": 2753,
      "林": 2754,
      "枚": 2755,
      "果": 2756,
      "枝": 2757,
      "枯": 2758,
      "架": 2759,
      "染": 2760,
      "柔": 2761,
      "柳": 2762,
      "栃": 2763,
      "栄": 2764,
      "校": 2765,
      "株": 2766,
      "栽": 2767,
      "桃": 2768,
      "桐": 2769,
      "桜": 2770,
      "桶": 2771,
      "梁": 2772,
      "梅": 2773,
      "梟": 2774,
      "梦": 2775,
      "梧": 2776,
      "棋": 2777,
      "森": 2778,
      "棺": 2779,
      "検": 2780,
      "楊": 2781,
      "楚": 2782,
      "業": 2783,
      "楷": 2784,
      "楼": 2785,
      "楽": 2786,
      "榮": 2787,
      "榴": 2788,
      "槟": 2789,
      "樂": 2790,
      "標": 2791,
      "横": 2792,
      "樹": 2793,
      "樽": 2794,
      "橋": 2795,
      "機": 2796,
      "權": 2797,
      "次": 2798,
      "歌": 2799,
      "正": 2800,
      "武": 2801,
      "死": 2802,
      "殷": 2803,
      "殺": 2804,
      "殿": 2805,
      "比": 2806,
      "毛": 2807,
      "氏": 2808,
      "民": 2809,
      "気": 2810,
      "水": 2811,
      "氵": 2812,
      "氷": 2813,
      "永": 2814,
      "汉": 2815,
      "汗": 2816,
      "江": 2817,
      "汤": 2818,
      "沈": 2819,
      "沉": 2820,
      "沖": 2821,
      "沙": 2822,
      "沢": 2823,
      "河": 2824,
      "治": 2825,
      "泉": 2826,
      "法": 2827,
      "波": 2828,
      "注": 2829,
      "泽": 2830,
      "洋": 2831,
      "洛": 2832,
      "洞": 2833,
      "津": 2834,
      "洪": 2835,
      "洲": 2836,
      "流": 2837,
      "浅": 2838,
      "济": 2839,
      "浙": 2840,
      "浜": 2841,
      "浪": 2842,
      "浮": 2843,
      "浴": 2844,
      "海": 2845,
      "涛": 2846,
      "淡": 2847,
      "淮": 2848,
      "深": 2849,
      "清": 2850,
      "済": 2851,
      "渝": 2852,
      "渡": 2853,
      "温": 2854,
      "港": 2855,
      "游": 2856,
      "渾": 2857,
      "湖": 2858,
      "湯": 2859,
      "湾": 2860,
      "満": 2861,
      "源": 2862,
      "漆": 2863,
      "漢": 2864,
      "漫": 2865,
      "漱": 2866,
      "潔": 2867,
      "潘": 2868,
      "澤": 2869,
      "澳": 2870,
      "濁": 2871,
      "濃": 2872,
      "濟": 2873,
      "濤": 2874,
      "瀋": 2875,
      "灣": 2876,
      "火": 2877,
      "灯": 2878,
      "災": 2879,
      "点": 2880,
      "為": 2881,
      "烏": 2882,
      "热": 2883,
      "無": 2884,
      "照": 2885,
      "爆": 2886,
      "爪": 2887,
      "爾": 2888,
      "片": 2889,
      "版": 2890,
      "牙": 2891,
      "牛": 2892,
      "物": 2893,
      "特": 2894,
      "犬": 2895,
      "狄": 2896,
      "狗": 2897,
      "狙": 2898,
      "狭": 2899,
      "狮": 2900,
      "狼": 2901,
      "猪": 2902,
      "猴": 2903,
      "猿": 2904,
      "獄": 2905,
      "獅": 2906,
      "玄": 2907,
      "玉": 2908,
      "王": 2909,
      "現": 2910,
      "球": 2911,
      "理": 2912,
      "瓦": 2913,
      "瓶": 2914,
      "甚": 2915,
      "生": 2916,
      "用": 2917,
      "田": 2918,
      "由": 2919,
      "甲": 2920,
      "电": 2921,
      "男": 2922,
      "町": 2923,
      "画": 2924,
      "界": 2925,
      "留": 2926,
      "略": 2927,
      "番": 2928,
      "異": 2929,
      "畳": 2930,
      "病": 2931,
      "症": 2932,
      "痛": 2933,
      "發": 2934,
      "白": 2935,
      "的": 2936,
      "皇": 2937,
      "皓": 2938,
      "皖": 2939,
      "盆": 2940,
      "益": 2941,
      "盛": 2942,
      "盟": 2943,
      "盤": 2944,
      "目": 2945,
      "直": 2946,
      "相": 2947,
      "省": 2948,
      "真": 2949,
      "眼": 2950,
      "着": 2951,
      "督": 2952,
      "睦": 2953,
      "瞑": 2954,
      "瞳": 2955,
      "瞻": 2956,
      "石": 2957,
      "研": 2958,
      "破": 2959,
      "硫": 2960,
      "碁": 2961,
      "碧": 2962,
      "磁": 2963,
      "礼": 2964,
      "社": 2965,
      "祖": 2966,
      "神": 2967,
      "祭": 2968,
      "祯": 2969,
      "禁": 2970,
      "禅": 2971,
      "福": 2972,
      "禪": 2973,
      "禮": 2974,
      "秀": 2975,
      "私": 2976,
      "秋": 2977,
      "科": 2978,
      "秘": 2979,
      "秦": 2980,
      "称": 2981,
      "稲": 2982,
      "穀": 2983,
      "穆": 2984,
      "究": 2985,
      "空": 2986,
      "突": 2987,
      "立": 2988,
      "竜": 2989,
      "章": 2990,
      "童": 2991,
      "端": 2992,
      "竹": 2993,
      "笔": 2994,
      "第": 2995,
      "等": 2996,
      "筑": 2997,
      "筛": 2998,
      "简": 2999,
      "箇": 3000,
      "箏": 3001,
      "算": 3002,
      "管": 3003,
      "節": 3004,
      "篇": 3005,
      "築": 3006,
      "簪": 3007,
      "籠": 3008,
      "米": 3009,
      "粉": 3010,
      "粟": 3011,
      "精": 3012,
      "系": 3013,
      "紀": 3014,
      "紅": 3015,
      "紇": 3016,
      "紋": 3017,
      "納": 3018,
      "紐": 3019,
      "純": 3020,
      "紙": 3021,
      "紫": 3022,
      "紺": 3023,
      "経": 3024,
      "結": 3025,
      "絕": 3026,
      "統": 3027,
      "絲": 3028,
      "絵": 3029,
      "絶": 3030,
      "絹": 3031,
      "經": 3032,
      "綢": 3033,
      "維": 3034,
      "綱": 3035,
      "網": 3036,
      "緋": 3037,
      "総": 3038,
      "線": 3039,
      "練": 3040,
      "縂": 3041,
      "縄": 3042,
      "縣": 3043,
      "織": 3044,
      "繡": 3045,
      "繰": 3046,
      "纏": 3047,
      "红": 3048,
      "纥": 3049,
      "级": 3050,
      "纳": 3051,
      "线": 3052,
      "经": 3053,
      "统": 3054,
      "维": 3055,
      "绸": 3056,
      "网": 3057,
      "罕": 3058,
      "署": 3059,
      "羅": 3060,
      "羊": 3061,
      "義": 3062,
      "羽": 3063,
      "翔": 3064,
      "翼": 3065,
      "者": 3066,
      "而": 3067,
      "耕": 3068,
      "聖": 3069,
      "聶": 3070,
      "肌": 3071,
      "肥": 3072,
      "肩": 3073,
      "育": 3074,
      "肺": 3075,
      "背": 3076,
      "能": 3077,
      "脇": 3078,
      "脑": 3079,
      "腕": 3080,
      "腦": 3081,
      "腰": 3082,
      "腹": 3083,
      "膽": 3084,
      "臣": 3085,
      "臨": 3086,
      "自": 3087,
      "臺": 3088,
      "興": 3089,
      "舞": 3090,
      "舟": 3091,
      "舶": 3092,
      "船": 3093,
      "良": 3094,
      "色": 3095,
      "艾": 3096,
      "节": 3097,
      "芜": 3098,
      "芭": 3099,
      "花": 3100,
      "芳": 3101,
      "芸": 3102,
      "苏": 3103,
      "苑": 3104,
      "英": 3105,
      "茂": 3106,
      "茅": 3107,
      "茶": 3108,
      "草": 3109,
      "荷": 3110,
      "莫": 3111,
      "莲": 3112,
      "菅": 3113,
      "菜": 3114,
      "華": 3115,
      "菱": 3116,
      "菴": 3117,
      "萄": 3118,
      "萍": 3119,
      "落": 3120,
      "葉": 3121,
      "葛": 3122,
      "葡": 3123,
      "董": 3124,
      "葵": 3125,
      "蒙": 3126,
      "蓮": 3127,
      "蔘": 3128,
      "蔡": 3129,
      "蕃": 3130,
      "蕉": 3131,
      "蕪": 3132,
      "蕾": 3133,
      "薇": 3134,
      "薩": 3135,
      "薫": 3136,
      "藏": 3137,
      "藤": 3138,
      "藩": 3139,
      "蘇": 3140,
      "蘭": 3141,
      "虎": 3142,
      "虔": 3143,
      "虫": 3144,
      "蛇": 3145,
      "蛮": 3146,
      "蜀": 3147,
      "蜜": 3148,
      "蝦": 3149,
      "螺": 3150,
      "行": 3151,
      "衍": 3152,
      "術": 3153,
      "街": 3154,
      "衛": 3155,
      "衡": 3156,
      "衢": 3157,
      "衣": 3158,
      "表": 3159,
      "衽": 3160,
      "衿": 3161,
      "袋": 3162,
      "袖": 3163,
      "袢": 3164,
      "袴": 3165,
      "裁": 3166,
      "裂": 3167,
      "裄": 3168,
      "製": 3169,
      "裾": 3170,
      "褄": 3171,
      "襟": 3172,
      "襦": 3173,
      "西": 3174,
      "要": 3175,
      "見": 3176,
      "視": 3177,
      "覚": 3178,
      "親": 3179,
      "觀": 3180,
      "视": 3181,
      "解": 3182,
      "言": 3183,
      "計": 3184,
      "訓": 3185,
      "記": 3186,
      "訪": 3187,
      "詞": 3188,
      "詮": 3189,
      "話": 3190,
      "誉": 3191,
      "認": 3192,
      "誓": 3193,
      "語": 3194,
      "誠": 3195,
      "説": 3196,
      "読": 3197,
      "誰": 3198,
      "調": 3199,
      "論": 3200,
      "諭": 3201,
      "諺": 3202,
      "謀": 3203,
      "謙": 3204,
      "謝": 3205,
      "識": 3206,
      "譜": 3207,
      "警": 3208,
      "護": 3209,
      "认": 3210,
      "记": 3211,
      "诃": 3212,
      "识": 3213,
      "词": 3214,
      "话": 3215,
      "语": 3216,
      "诸": 3217,
      "谈": 3218,
      "谷": 3219,
      "豆": 3220,
      "豊": 3221,
      "豚": 3222,
      "象": 3223,
      "豪": 3224,
      "豫": 3225,
      "豬": 3226,
      "貝": 3227,
      "財": 3228,
      "貨": 3229,
      "買": 3230,
      "資": 3231,
      "賊": 3232,
      "質": 3233,
      "贤": 3234,
      "赋": 3235,
      "赣": 3236,
      "赤": 3237,
      "赵": 3238,
      "超": 3239,
      "越": 3240,
      "足": 3241,
      "跆": 3242,
      "跡": 3243,
      "路": 3244,
      "踞": 3245,
      "蹲": 3246,
      "身": 3247,
      "車": 3248,
      "軍": 3249,
      "転": 3250,
      "輔": 3251,
      "輝": 3252,
      "輪": 3253,
      "车": 3254,
      "辖": 3255,
      "辰": 3256,
      "辺": 3257,
      "辽": 3258,
      "达": 3259,
      "运": 3260,
      "近": 3261,
      "还": 3262,
      "连": 3263,
      "迪": 3264,
      "迷": 3265,
      "追": 3266,
      "退": 3267,
      "送": 3268,
      "逆": 3269,
      "通": 3270,
      "速": 3271,
      "造": 3272,
      "遊": 3273,
      "運": 3274,
      "道": 3275,
      "達": 3276,
      "遠": 3277,
      "遼": 3278,
      "避": 3279,
      "還": 3280,
      "邑": 3281,
      "那": 3282,
      "郎": 3283,
      "郡": 3284,
      "部": 3285,
      "郭": 3286,
      "郷": 3287,
      "都": 3288,
      "鄂": 3289,
      "鄒": 3290,
      "酌": 3291,
      "酒": 3292,
      "酛": 3293,
      "醍": 3294,
      "醐": 3295,
      "醸": 3296,
      "里": 3297,
      "重": 3298,
      "野": 3299,
      "金": 3300,
      "鉄": 3301,
      "銀": 3302,
      "銃": 3303,
      "銭": 3304,
      "錢": 3305,
      "錦": 3306,
      "鎌": 3307,
      "鎮": 3308,
      "鐘": 3309,
      "鐵": 3310,
      "鑑": 3311,
      "铁": 3312,
      "镇": 3313,
      "長": 3314,
      "长": 3315,
      "門": 3316,
      "閃": 3317,
      "開": 3318,
      "間": 3319,
      "関": 3320,
      "閣": 3321,
      "閥": 3322,
      "關": 3323,
      "门": 3324,
      "闪": 3325,
      "间": 3326,
      "阇": 3327,
      "阜": 3328,
      "阪": 3329,
      "阳": 3330,
      "阿": 3331,
      "际": 3332,
      "限": 3333,
      "院": 3334,
      "陰": 3335,
      "陳": 3336,
      "陵": 3337,
      "険": 3338,
      "陽": 3339,
      "隆": 3340,
      "隈": 3341,
      "隊": 3342,
      "階": 3343,
      "際": 3344,
      "隠": 3345,
      "雄": 3346,
      "集": 3347,
      "難": 3348,
      "雪": 3349,
      "雫": 3350,
      "雲": 3351,
      "雷": 3352,
      "電": 3353,
      "震": 3354,
      "霊": 3355,
      "霍": 3356,
      "青": 3357,
      "靚": 3358,
      "面": 3359,
      "革": 3360,
      "鞋": 3361,
      "韓": 3362,
      "韩": 3363,
      "音": 3364,
      "韵": 3365,
      "韻": 3366,
      "頃": 3367,
      "頭": 3368,
      "頼": 3369,
      "願": 3370,
      "風": 3371,
      "风": 3372,
      "飛": 3373,
      "食": 3374,
      "餅": 3375,
      "館": 3376,
      "馆": 3377,
      "首": 3378,
      "香": 3379,
      "馬": 3380,
      "駄": 3381,
      "駿": 3382,
      "马": 3383,
      "骨": 3384,
      "高": 3385,
      "髦": 3386,
      "鬼": 3387,
      "魂": 3388,
      "魏": 3389,
      "魔": 3390,
      "魯": 3391,
      "鮫": 3392,
      "鮮": 3393,
      "鲁": 3394,
      "鳥": 3395,
      "鵝": 3396,
      "鶴": 3397,
      "鶻": 3398,
      "鷄": 3399,
      "鸞": 3400,
      "鸿": 3401,
      "鹅": 3402,
      "鹊": 3403,
      "鹘": 3404,
      "鹿": 3405,
      "麗": 3406,
      "麦": 3407,
      "麻": 3408,
      "黄": 3409,
      "黍": 3410,
      "黑": 3411,
      "黒": 3412,
      "默": 3413,
      "黙": 3414,
      "點": 3415,
      "鼓": 3416,
      "齐": 3417,
      "龍": 3418,
      "ꜣ": 3419,
      "ꥠ": 3420,
      "ꥡ": 3421,
      "ꥢ": 3422,
      "ꥣ": 3423,
      "ꥤ": 3424,
      "ꥥ": 3425,
      "ꥦ": 3426,
      "ꥧ": 3427,
      "ꥨ": 3428,
      "ꥩ": 3429,
      "ꥪ": 3430,
      "ꥫ": 3431,
      "ꥬ": 3432,
      "ꥭ": 3433,
      "ꥮ": 3434,
      "ꥯ": 3435,
      "ꥰ": 3436,
      "ꥱ": 3437,
      "ꥲ": 3438,
      "ꥳ": 3439,
      "ꥴ": 3440,
      "ꥵ": 3441,
      "ꥶ": 3442,
      "ꥷ": 3443,
      "ꥸ": 3444,
      "ꥹ": 3445,
      "ꥺ": 3446,
      "ꥻ": 3447,
      "ꥼ": 3448,
      "가": 3449,
      "각": 3450,
      "간": 3451,
      "갓": 3452,
      "강": 3453,
      "개": 3454,
      "거": 3455,
      "검": 3456,
      "겉": 3457,
      "격": 3458,
      "경": 3459,
      "고": 3460,
      "공": 3461,
      "관": 3462,
      "교": 3463,
      "구": 3464,
      "국": 3465,
      "군": 3466,
      "권": 3467,
      "규": 3468,
      "그": 3469,
      "근": 3470,
      "귿": 3471,
      "글": 3472,
      "금": 3473,
      "기": 3474,
      "김": 3475,
      "까": 3476,
      "깍": 3477,
      "나": 3478,
      "남": 3479,
      "녀": 3480,
      "노": 3481,
      "니": 3482,
      "닙": 3483,
      "다": 3484,
      "단": 3485,
      "달": 3486,
      "닭": 3487,
      "당": 3488,
      "대": 3489,
      "덕": 3490,
      "도": 3491,
      "동": 3492,
      "된": 3493,
      "두": 3494,
      "둑": 3495,
      "드": 3496,
      "디": 3497,
      "딤": 3498,
      "라": 3499,
      "락": 3500,
      "랑": 3501,
      "래": 3502,
      "려": 3503,
      "례": 3504,
      "뢰": 3505,
      "리": 3506,
      "마": 3507,
      "말": 3508,
      "면": 3509,
      "멸": 3510,
      "명": 3511,
      "무": 3512,
      "묵": 3513,
      "문": 3514,
      "미": 3515,
      "민": 3516,
      "바": 3517,
      "박": 3518,
      "반": 3519,
      "밥": 3520,
      "방": 3521,
      "배": 3522,
      "백": 3523,
      "버": 3524,
      "벌": 3525,
      "범": 3526,
      "보": 3527,
      "볶": 3528,
      "부": 3529,
      "북": 3530,
      "비": 3531,
      "산": 3532,
      "삼": 3533,
      "상": 3534,
      "새": 3535,
      "서": 3536,
      "석": 3537,
      "선": 3538,
      "섯": 3539,
      "성": 3540,
      "소": 3541,
      "수": 3542,
      "슈": 3543,
      "시": 3544,
      "식": 3545,
      "신": 3546,
      "쌈": 3547,
      "아": 3548,
      "악": 3549,
      "안": 3550,
      "암": 3551,
      "액": 3552,
      "야": 3553,
      "양": 3554,
      "어": 3555,
      "언": 3556,
      "없": 3557,
      "엘": 3558,
      "역": 3559,
      "연": 3560,
      "열": 3561,
      "영": 3562,
      "예": 3563,
      "오": 3564,
      "옷": 3565,
      "외": 3566,
      "요": 3567,
      "우": 3568,
      "원": 3569,
      "월": 3570,
      "위": 3571,
      "윤": 3572,
      "으": 3573,
      "윽": 3574,
      "은": 3575,
      "읃": 3576,
      "음": 3577,
      "읏": 3578,
      "의": 3579,
      "이": 3580,
      "인": 3581,
      "일": 3582,
      "임": 3583,
      "잎": 3584,
      "자": 3585,
      "장": 3586,
      "전": 3587,
      "절": 3588,
      "젓": 3589,
      "정": 3590,
      "조": 3591,
      "족": 3592,
      "주": 3593,
      "죽": 3594,
      "중": 3595,
      "지": 3596,
      "진": 3597,
      "짐": 3598,
      "찌": 3599,
      "차": 3600,
      "찬": 3601,
      "창": 3602,
      "천": 3603,
      "첨": 3604,
      "총": 3605,
      "추": 3606,
      "츼": 3607,
      "치": 3608,
      "칫": 3609,
      "클": 3610,
      "키": 3611,
      "탕": 3612,
      "태": 3613,
      "투": 3614,
      "틀": 3615,
      "티": 3616,
      "팀": 3617,
      "파": 3618,
      "판": 3619,
      "퍼": 3620,
      "평": 3621,
      "표": 3622,
      "풀": 3623,
      "피": 3624,
      "학": 3625,
      "한": 3626,
      "했": 3627,
      "행": 3628,
      "현": 3629,
      "호": 3630,
      "홍": 3631,
      "화": 3632,
      "환": 3633,
      "훈": 3634,
      "히": 3635,
      "ힰ": 3636,
      "ힱ": 3637,
      "ힲ": 3638,
      "ힳ": 3639,
      "ힴ": 3640,
      "ힵ": 3641,
      "ힶ": 3642,
      "ힷ": 3643,
      "ힸ": 3644,
      "ힹ": 3645,
      "ힺ": 3646,
      "ힻ": 3647,
      "ힼ": 3648,
      "ힽ": 3649,
      "ힾ": 3650,
      "ힿ": 3651,
      "ퟀ": 3652,
      "ퟁ": 3653,
      "ퟂ": 3654,
      "ퟃ": 3655,
      "ퟄ": 3656,
      "ퟅ": 3657,
      "ퟆ": 3658,
      "ퟋ": 3659,
      "ퟌ": 3660,
      "ퟍ": 3661,
      "ퟎ": 3662,
      "ퟏ": 3663,
      "ퟐ": 3664,
      "ퟑ": 3665,
      "ퟒ": 3666,
      "ퟓ": 3667,
      "ퟔ": 3668,
      "ퟕ": 3669,
      "ퟖ": 3670,
      "ퟗ": 3671,
      "ퟘ": 3672,
      "ퟙ": 3673,
      "ퟚ": 3674,
      "ퟛ": 3675,
      "ퟜ": 3676,
      "ퟝ": 3677,
      "ퟞ": 3678,
      "ퟟ": 3679,
      "ퟠ": 3680,
      "ퟡ": 3681,
      "ퟢ": 3682,
      "ퟣ": 3683,
      "ퟤ": 3684,
      "ퟥ": 3685,
      "ퟦ": 3686,
      "ퟧ": 3687,
      "ퟨ": 3688,
      "ퟩ": 3689,
      "ퟪ": 3690,
      "ퟫ": 3691,
      "ퟬ": 3692,
      "ퟭ": 3693,
      "ퟮ": 3694,
      "ퟯ": 3695,
      "ퟰ": 3696,
      "ퟱ": 3697,
      "ퟲ": 3698,
      "ퟳ": 3699,
      "ퟴ": 3700,
      "ퟵ": 3701,
      "ퟶ": 3702,
      "ퟷ": 3703,
      "ퟸ": 3704,
      "ퟹ": 3705,
      "ퟺ": 3706,
      "ퟻ": 3707,
      "ﬁ": 3708,
      "﴾": 3709,
      "﴿": 3710,
      "ﷺ": 3711,
      "︎": 3712,
      "️": 3713,
      "ﻻ": 3714,
      "﻿": 3715,
      "（": 3716,
      "）": 3717,
      "，": 3718,
      "－": 3719,
      "０": 3720,
      "４": 3721,
      "：": 3722,
      "～": 3723,
      "￼": 3724,
      "𐀃": 3725,
      "𐀆": 3726,
      "𐀚": 3727,
      "𐀡": 3728,
      "𐀮": 3729,
      "𐀺": 3730,
      "𐌰": 3731,
      "𐌲": 3732,
      "𐌾": 3733,
      "𐌿": 3734,
      "𐍂": 3735,
      "𐍆": 3736,
      "𐎂": 3737,
      "𐎄": 3738,
      "𐎅": 3739,
      "𐎆": 3740,
      "𐎎": 3741,
      "𐎕": 3742,
      "𐎗": 3743,
      "𐎚": 3744,
      "𐎜": 3745,
      "𐎠": 3746,
      "𐎧": 3747,
      "𐎭": 3748,
      "𐎸": 3749,
      "𐎹": 3750,
      "𐎼": 3751,
      "𐏁": 3752,
      "𐏂": 3753,
      "𐒈": 3754,
      "𐒍": 3755,
      "𐒐": 3756,
      "𐒑": 3757,
      "𐒖": 3758,
      "𐒘": 3759,
      "𐒛": 3760,
      "𐒝": 3761,
      "𐡇": 3762,
      "𐢊": 3763,
      "𐤁": 3764,
      "𐤇": 3765,
      "𐤉": 3766,
      "𐤊": 3767,
      "𐤋": 3768,
      "𐤌": 3769,
      "𐤍": 3770,
      "𐤏": 3771,
      "𐤔": 3772,
      "𐤕": 3773,
      "𐩢": 3774,
      "𐩣": 3775,
      "𐩤": 3776,
      "𐩥": 3777,
      "𐩧": 3778,
      "𐩩": 3779,
      "𐩫": 3780,
      "𐩬": 3781,
      "𐩳": 3782,
      "𐩴": 3783,
      "𐩵": 3784,
      "𐩹": 3785,
      "𐩺": 3786,
      "𐭠": 3787,
      "𐭣": 3788,
      "𐭥": 3789,
      "𐭧": 3790,
      "𐭩": 3791,
      "𐭪": 3792,
      "𐭫": 3793,
      "𐭭": 3794,
      "𐭮": 3795,
      "𐭰": 3796,
      "𐭲": 3797,
      "𒀊": 3798,
      "𒀪": 3799,
      "𒀫": 3800,
      "𒀭": 3801,
      "𒀸": 3802,
      "𒁉": 3803,
      "𒁓": 3804,
      "𒁺": 3805,
      "𒂍": 3806,
      "𒂵": 3807,
      "𒃻": 3808,
      "𒄑": 3809,
      "𒄖": 3810,
      "𒄠": 3811,
      "𒄩": 3812,
      "𒄭": 3813,
      "𒅎": 3814,
      "𒅮": 3815,
      "𒆍": 3816,
      "𒆠": 3817,
      "𒆪": 3818,
      "𒆷": 3819,
      "𒇉": 3820,
      "𒈗": 3821,
      "𒈠": 3822,
      "𒈨": 3823,
      "𒈪": 3824,
      "𒈬": 3825,
      "𒈾": 3826,
      "𒉋": 3827,
      "𒉢": 3828,
      "𒉣": 3829,
      "𒊏": 3830,
      "𒊩": 3831,
      "𒊬": 3832,
      "𒊮": 3833,
      "𒋗": 3834,
      "𒋥": 3835,
      "𒋩": 3836,
      "𒋫": 3837,
      "𒋼": 3838,
      "𒋾": 3839,
      "𒌅": 3840,
      "𒌋": 3841,
      "𒌒": 3842,
      "𒌝": 3843,
      "𒌦": 3844,
      "𒌷": 3845,
      "𒍪": 3846,
      "𓂋": 3847,
      "𓅓": 3848,
      "𓆎": 3849,
      "𓇥": 3850,
      "𓈖": 3851,
      "𓊅": 3852,
      "𓊖": 3853,
      "𓏏": 3854,
      "𓏺": 3855,
      "𝄆": 3856,
      "𝄇": 3857,
      "𝐅": 3858,
      "𝐕": 3859,
      "𝐹": 3860,
      "𝑥": 3861,
      "𝒻": 3862,
      "𝒽": 3863,
      "𞤄": 3864,
      "𞤢": 3865,
      "𞤥": 3866,
      "𞤮": 3867,
      "𞤳": 3868,
      "🇦": 3869,
      "🇮": 3870,
      "🇳": 3871,
      "🇷": 3872,
      "🇸": 3873,
      "🇹": 3874,
      "🍋": 3875,
      "🍴": 3876,
      "🎉": 3877,
      "📺": 3878,
      "📻": 3879,
      "🕊": 3880,
      "🖒": 3881,
      "😉": 3882,
      "🤗": 3883,
      "🥘": 3884,
      "ال": 3885,
      "ية": 3886,
      "في": 3887,
      "الم": 3888,
      "ان": 3889,
      "من": 3890,
      "ات": 3891,
      "ين": 3892,
      "ار": 3893,
      "لى": 3894,
      "ام": 3895,
      "ول": 3896,
      "الأ": 3897,
      "ها": 3898,
      "ون": 3899,
      "الت": 3900,
      "ير": 3901,
      "ما": 3902,
      "را": 3903,
      "ري": 3904,
      "الع": 3905,
      "لا": 3906,
      "وا": 3907,
      "لي": 3908,
      "ور": 3909,
      "يا": 3910,
      "ست": 3911,
      "على": 3912,
      "دي": 3913,
      "أن": 3914,
      "وال": 3915,
      "وم": 3916,
      "الح": 3917,
      "نا": 3918,
      "اب": 3919,
      "الب": 3920,
      "لك": 3921,
      "الس": 3922,
      "عد": 3923,
      "الق": 3924,
      "كان": 3925,
      "إلى": 3926,
      "وي": 3927,
      "لم": 3928,
      "وب": 3929,
      "رب": 3930,
      "مع": 3931,
      "اد": 3932,
      "وت": 3933,
      "سي": 3934,
      "الإ": 3935,
      "الج": 3936,
      "لل": 3937,
      "قد": 3938,
      "رة": 3939,
      "عن": 3940,
      "هم": 3941,
      "ائ": 3942,
      "بر": 3943,
      "بي": 3944,
      "الك": 3945,
      "دة": 3946,
      "الن": 3947,
      "وس": 3948,
      "الش": 3949,
      "الد": 3950,
      "19": 3951,
      "عة": 3952,
      "الف": 3953,
      "تم": 3954,
      "سم": 3955,
      "ود": 3956,
      "عام": 3957,
      "وج": 3958,
      "هذ": 3959,
      "وق": 3960,
      "اء": 3961,
      "حي": 3962,
      "تح": 3963,
      "التي": 3964,
      "بن": 3965,
      "يم": 3966,
      "لة": 3967,
      "عم": 3968,
      "رك": 3969,
      "بل": 3970,
      "با": 3971,
      "كل": 3972,
      "الر": 3973,
      "هي": 3974,
      "اف": 3975,
      "سب": 3976,
      "قة": 3977,
      "بد": 3978,
      "يد": 3979,
      "كن": 3980,
      "أو": 3981,
      "مد": 3982,
      "00": 3983,
      "الخ": 3984,
      "شر": 3985,
      "يل": 3986,
      "الذ": 3987,
      "هو": 3988,
      "سا": 3989,
      "وف": 3990,
      "الص": 3991,
      "حد": 3992,
      "حت": 3993,
      "يت": 3994,
      "الث": 3995,
      "ذلك": 3996,
      "است": 3997,
      "الي": 3998,
      "الل": 3999,
      "جم": 4000,
      "سل": 4001,
      "خل": 4002,
      "بين": 4003,
      "اني": 4004,
      "وع": 4005,
      "كت": 4006,
      "مر": 4007,
      "يع": 4008,
      "سن": 4009,
      "خر": 4010,
      "مة": 4011,
      "وأ": 4012,
      "اع": 4013,
      "هر": 4014,
      "إن": 4015,
      "صر": 4016,
      "ًا": 4017,
      "بعد": 4018,
      "أي": 4019,
      "تق": 4020,
      "يس": 4021,
      "مت": 4022,
      "بع": 4023,
      "وفي": 4024,
      "لت": 4025,
      "رن": 4026,
      "الط": 4027,
      "قي": 4028,
      "مح": 4029,
      "كر": 4030,
      "انية": 4031,
      "در": 4032,
      "لف": 4033,
      "اص": 4034,
      "وز": 4035,
      "اري": 4036,
      "هذه": 4037,
      "وك": 4038,
      "عل": 4039,
      "علي": 4040,
      "هذا": 4041,
      "هد": 4042,
      "ارة": 4043,
      "ينة": 4044,
      "يرة": 4045,
      "صل": 4046,
      "الا": 4047,
      "كانت": 4048,
      "كون": 4049,
      "دا": 4050,
      "الذي": 4051,
      "عب": 4052,
      "ثر": 4053,
      "قت": 4054,
      "قا": 4055,
      "مث": 4056,
      "فر": 4057,
      "يات": 4058,
      "أس": 4059,
      "كم": 4060,
      "ولا": 4061,
      "رف": 4062,
      "وح": 4063,
      "الغ": 4064,
      "بح": 4065,
      "خت": 4066,
      "سة": 4067,
      "ني": 4068,
      "حيث": 4069,
      "فا": 4070,
      "ته": 4071,
      "أك": 4072,
      "والم": 4073,
      "بة": 4074,
      "تع": 4075,
      "20": 4076,
      "رض": 4077,
      "مل": 4078,
      "غير": 4079,
      "ثم": 4080,
      "ولة": 4081,
      "قل": 4082,
      "جل": 4083,
      "يز": 4084,
      "أم": 4085,
      "خد": 4086,
      "كي": 4087,
      "ديد": 4088,
      "تش": 4089,
      "وط": 4090,
      "المن": 4091,
      "الأم": 4092,
      "يو": 4093,
      "له": 4094,
      "طة": 4095,
      "تي": 4096,
      "اله": 4097,
      "كما": 4098,
      "200": 4099,
      "قبل": 4100,
      "وية": 4101,
      "وري": 4102,
      "تر": 4103,
      "وات": 4104,
      "طل": 4105,
      "يش": 4106,
      "المد": 4107,
      "سية": 4108,
      "جن": 4109,
      "وص": 4110,
      "جا": 4111,
      "رق": 4112,
      "سنة": 4113,
      "َّ": 4114,
      "عند": 4115,
      "مس": 4116,
      "به": 4117,
      "ريق": 4118,
      "فة": 4119,
      "وقد": 4120,
      "ند": 4121,
      "حة": 4122,
      "وض": 4123,
      "راء": 4124,
      "18": 4125,
      "فس": 4126,
      "مثل": 4127,
      "الز": 4128,
      "جة": 4129,
      "بار": 4130,
      "قر": 4131,
      "وان": 4132,
      "العالم": 4133,
      "خص": 4134,
      "بط": 4135,
      "الية": 4136,
      "تن": 4137,
      "المع": 4138,
      "حر": 4139,
      "سط": 4140,
      "فق": 4141,
      "ورة": 4142,
      "العرب": 4143,
      "تا": 4144,
      "أنه": 4145,
      "ركة": 4146,
      "ومن": 4147,
      "بعض": 4148,
      "كا": 4149,
      "جز": 4150,
      "تد": 4151,
      "ضا": 4152,
      "خلال": 4153,
      "حتى": 4154,
      "الات": 4155,
      "جر": 4156,
      "يق": 4157,
      "بير": 4158,
      "أص": 4159,
      "حا": 4160,
      "خرى": 4161,
      "الله": 4162,
      "بت": 4163,
      "فت": 4164,
      "شكل": 4165,
      "افة": 4166,
      "الة": 4167,
      "عبد": 4168,
      "فل": 4169,
      "ئي": 4170,
      "برا": 4171,
      "اريخ": 4172,
      "نظ": 4173,
      "الإن": 4174,
      "القرن": 4175,
      "وهو": 4176,
      "الآ": 4177,
      "عمل": 4178,
      "ادة": 4179,
      "ناء": 4180,
      "انت": 4181,
      "زي": 4182,
      "طقة": 4183,
      "حل": 4184,
      ").": 4185,
      "أول": 4186,
      "عت": 4187,
      "جد": 4188,
      "ذا": 4189,
      "لاد": 4190,
      "جت": 4191,
      "سلام": 4192,
      "عي": 4193,
      "شا": 4194,
      "ورية": 4195,
      "المت": 4196,
      "مي": 4197,
      "عدد": 4198,
      "والت": 4199,
      "ئيس": 4200,
      ")،": 4201,
      "مق": 4202,
      "شي": 4203,
      "للم": 4204,
      "بات": 4205,
      "وهي": 4206,
      "غة": 4207,
      "نة": 4208,
      "ثير": 4209,
      "نية": 4210,
      "المس": 4211,
      "أب": 4212,
      "اض": 4213,
      "ولي": 4214,
      "عا": 4215,
      "بق": 4216,
      "تت": 4217,
      "مار": 4218,
      "مست": 4219,
      "عية": 4220,
      "وكان": 4221,
      "بية": 4222,
      "النا": 4223,
      "والأ": 4224,
      "خط": 4225,
      "أكثر": 4226,
      "مدينة": 4227,
      "فض": 4228,
      "لاح": 4229,
      "وه": 4230,
      "المتح": 4231,
      "قام": 4232,
      "بها": 4233,
      "تج": 4234,
      "وسط": 4235,
      "201": 4236,
      "السل": 4237,
      "سر": 4238,
      "العام": 4239,
      "جه": 4240,
      "وى": 4241,
      "كوم": 4242,
      "ظم": 4243,
      "شار": 4244,
      "جي": 4245,
      "مص": 4246,
      "سع": 4247,
      "199": 4248,
      "وة": 4249,
      "محمد": 4250,
      "سيا": 4251,
      "صف": 4252,
      "لاث": 4253,
      "لق": 4254,
      "يف": 4255,
      "أيضا": 4256,
      "وروب": 4257,
      "عض": 4258,
      "اً": 4259,
      "كية": 4260,
      "رية": 4261,
      "رد": 4262,
      "المدينة": 4263,
      "أحد": 4264,
      "ملك": 4265,
      "رت": 4266,
      "الجن": 4267,
      "وار": 4268,
      "يني": 4269,
      "الاست": 4270,
      "المست": 4271,
      "الأول": 4272,
      "قدم": 4273,
      "ولى": 4274,
      "بدأ": 4275,
      "رائ": 4276,
      "ولكن": 4277,
      "انيا": 4278,
      "لد": 4279,
      "قط": 4280,
      "أد": 4281,
      "يمكن": 4282,
      "اه": 4283,
      "كس": 4284,
      "الملك": 4285,
      "عدة": 4286,
      "ماء": 4287,
      "فيها": 4288,
      "وعة": 4289,
      "دم": 4290,
      "خدم": 4291,
      "خاص": 4292,
      "رس": 4293,
      "وسي": 4294,
      "الإسلام": 4295,
      "المح": 4296,
      "عشر": 4297,
      "ينية": 4298,
      "راق": 4299,
      "المتحدة": 4300,
      "شت": 4301,
      "سبب": 4302,
      "والي": 4303,
      "وجد": 4304,
      "اليا": 4305,
      "».": 4306,
      "وقت": 4307,
      "تحت": 4308,
      "مال": 4309,
      "ئة": 4310,
      "ركز": 4311,
      "راض": 4312,
      "طا": 4313,
      "والتي": 4314,
      "ناك": 4315,
      "الض": 4316,
      "اته": 4317,
      "قص": 4318,
      "لب": 4319,
      "ابن": 4320,
      "يط": 4321,
      "أش": 4322,
      "نفس": 4323,
      "طق": 4324,
      "ختلف": 4325,
      "اث": 4326,
      "جع": 4327,
      "الجز": 4328,
      "بلغ": 4329,
      "إلا": 4330,
      "لها": 4331,
      "تأ": 4332,
      "تلك": 4333,
      "وث": 4334,
      "تف": 4335,
      "العربية": 4336,
      "وش": 4337,
      "أخرى": 4338,
      "حية": 4339,
      "العديد": 4340,
      "قلي": 4341,
      "جميع": 4342,
      "از": 4343,
      "بشكل": 4344,
      "المص": 4345,
      "طي": 4346,
      "ظهر": 4347,
      "قال": 4348,
      "المنا": 4349,
      "كتاب": 4350,
      "عندما": 4351,
      "مان": 4352,
      "تص": 4353,
      "إس": 4354,
      "فإن": 4355,
      "لكن": 4356,
      "غم": 4357,
      "الحرب": 4358,
      "أح": 4359,
      "سبة": 4360,
      "ارات": 4361,
      "عات": 4362,
      "بم": 4363,
      "هل": 4364,
      "ديث": 4365,
      "يج": 4366,
      "السيا": 4367,
      "أنها": 4368,
      "البر": 4369,
      "سان": 4370,
      "اسم": 4371,
      "رات": 4372,
      "زة": 4373,
      "بك": 4374,
      "يون": 4375,
      "وما": 4376,
      "15": 4377,
      "مؤ": 4378,
      "منها": 4379,
      "يوم": 4380,
      "حاد": 4381,
      "ريط": 4382,
      "وإ": 4383,
      "أخ": 4384,
      "غرب": 4385,
      "سين": 4386,
      "مصر": 4387,
      "خدام": 4388,
      "الان": 4389,
      "لات": 4390,
      "ديدة": 4391,
      "تها": 4392,
      "ذي": 4393,
      "10": 4394,
      "198": 4395,
      "منذ": 4396,
      "فن": 4397,
      "سك": 4398,
      "دول": 4399,
      "واق": 4400,
      "17": 4401,
      "الغرب": 4402,
      "ارية": 4403,
      "أغ": 4404,
      "ئية": 4405,
      "ينا": 4406,
      "والع": 4407,
      "جان": 4408,
      "أما": 4409,
      "عليه": 4410,
      "حول": 4411,
      "ضافة": 4412,
      "المؤ": 4413,
      "فقد": 4414,
      "مجم": 4415,
      "الرا": 4416,
      "لاف": 4417,
      "الأولى": 4418,
      "حق": 4419,
      "ملي": 4420,
      "هناك": 4421,
      "يتم": 4422,
      "كومة": 4423,
      "قتص": 4424,
      "وجود": 4425,
      "هما": 4426,
      "الإم": 4427,
      "زا": 4428,
      "»،": 4429,
      "يست": 4430,
      "جلس": 4431,
      "إلي": 4432,
      "197": 4433,
      "ثلاث": 4434,
      "مما": 4435,
      "الدولة": 4436,
      "فع": 4437,
      "قب": 4438,
      "وين": 4439,
      "منطقة": 4440,
      "ظر": 4441,
      "اعت": 4442,
      "الفي": 4443,
      "جام": 4444,
      "وذ": 4445,
      "الولا": 4446,
      "ائل": 4447,
      "الذين": 4448,
      "حم": 4449,
      "13": 4450,
      "تاريخ": 4451,
      "كب": 4452,
      "لاق": 4453,
      "ارج": 4454,
      "فريق": 4455,
      "اللغة": 4456,
      "فيه": 4457,
      "الثاني": 4458,
      "علم": 4459,
      "الري": 4460,
      "وقع": 4461,
      "نها": 4462,
      "196": 4463,
      "سات": 4464,
      "آخر": 4465,
      "جلي": 4466,
      "البحر": 4467,
      "14": 4468,
      "منا": 4469,
      "كبير": 4470,
      "طر": 4471,
      "القدي": 4472,
      "افظ": 4473,
      "16": 4474,
      "وير": 4475,
      "كرة": 4476,
      "شع": 4477,
      "الأس": 4478,
      "دون": 4479,
      "مج": 4480,
      "تين": 4481,
      "يكون": 4482,
      "ضم": 4483,
      "12": 4484,
      "يادة": 4485,
      "لن": 4486,
      "طور": 4487,
      "حص": 4488,
      "دية": 4489,
      "ابة": 4490,
      "الأمري": 4491,
      "وني": 4492,
      "أر": 4493,
      "حو": 4494,
      "رئيس": 4495,
      "والد": 4496,
      "تكون": 4497,
      "مه": 4498,
      "المي": 4499,
      "الدول": 4500,
      "وغ": 4501,
      "اح": 4502,
      "الدين": 4503,
      "مسا": 4504,
      "ذكر": 4505,
      "قية": 4506,
      "أكبر": 4507,
      "ياء": 4508,
      "عمال": 4509,
      "صد": 4510,
      "عادة": 4511,
      "الشي": 4512,
      "وائ": 4513,
      "الأن": 4514,
      "000": 4515,
      "حين": 4516,
      "عمر": 4517,
      "كار": 4518,
      "هب": 4519,
      "أث": 4520,
      "القر": 4521,
      "يين": 4522,
      "امل": 4523,
      "ذات": 4524,
      "أع": 4525,
      "ودة": 4526,
      "الجنوب": 4527,
      "ورا": 4528,
      "الوط": 4529,
      "مية": 4530,
      "حوالي": 4531,
      "تخ": 4532,
      "ملكة": 4533,
      "وضع": 4534,
      "المر": 4535,
      "er": 4536,
      "اة": 4537,
      "بسبب": 4538,
      "زب": 4539,
      "يُ": 4540,
      "زل": 4541,
      "قائ": 4542,
      "بالإ": 4543,
      "التج": 4544,
      "الحر": 4545,
      "زية": 4546,
      "إد": 4547,
      "مرا": 4548,
      "الفرن": 4549,
      "اخت": 4550,
      "شخص": 4551,
      "باسم": 4552,
      "بال": 4553,
      "الكت": 4554,
      "تبر": 4555,
      "بيد": 4556,
      "الأخ": 4557,
      "الشرق": 4558,
      "البي": 4559,
      "هـ": 4560,
      "ائية": 4561,
      "194": 4562,
      "ودية": 4563,
      "195": 4564,
      "أوروب": 4565,
      "طريق": 4566,
      "المنطقة": 4567,
      "حكم": 4568,
      "واح": 4569,
      "مرة": 4570,
      "ساب": 4571,
      "ليل": 4572,
      "وجه": 4573,
      "كتب": 4574,
      "فرن": 4575,
      "يه": 4576,
      "الولايات": 4577,
      "ويل": 4578,
      "واست": 4579,
      "الرئيس": 4580,
      "ضمن": 4581,
      "عليها": 4582,
      "أمري": 4583,
      "صب": 4584,
      "جتما": 4585,
      "أهم": 4586,
      "أبي": 4587,
      "الأخرى": 4588,
      "ّة": 4589,
      "العل": 4590,
      "واحد": 4591,
      "سكان": 4592,
      "تز": 4593,
      "العمل": 4594,
      "وذلك": 4595,
      "طبي": 4596,
      "تس": 4597,
      "ثل": 4598,
      "قتصاد": 4599,
      "ياة": 4600,
      "ترة": 4601,
      "الفل": 4602,
      "طان": 4603,
      "الأح": 4604,
      "واع": 4605,
      "جنوب": 4606,
      "انون": 4607,
      "الأرض": 4608,
      "كة": 4609,
      "تاج": 4610,
      "َّة": 4611,
      "الشم": 4612,
      "صور": 4613,
      "طب": 4614,
      "إم": 4615,
      "ومع": 4616,
      "وبر": 4617,
      "الساب": 4618,
      "غر": 4619,
      "وكانت": 4620,
      "أبو": 4621,
      "ضر": 4622,
      "ولد": 4623,
      "طف": 4624,
      "ضد": 4625,
      "يح": 4626,
      "لغ": 4627,
      "an": 4628,
      "وصل": 4629,
      "ربع": 4630,
      "طلق": 4631,
      "سمى": 4632,
      "بالم": 4633,
      "الإس": 4634,
      "يب": 4635,
      "بأن": 4636,
      "النظ": 4637,
      "إذا": 4638,
      "ويم": 4639,
      "سمية": 4640,
      "ويت": 4641,
      "باب": 4642,
      "تست": 4643,
      "البلاد": 4644,
      "الرغم": 4645,
      "والذي": 4646,
      "عرف": 4647,
      "بما": 4648,
      "قاط": 4649,
      "نف": 4650,
      "التاريخ": 4651,
      "اليوم": 4652,
      "انات": 4653,
      "العراق": 4654,
      "فاع": 4655,
      "أوروبا": 4656,
      "واء": 4657,
      "اية": 4658,
      "بالت": 4659,
      "المسلم": 4660,
      "لح": 4661,
      "الحديث": 4662,
      "شف": 4663,
      "راد": 4664,
      "واد": 4665,
      "وظ": 4666,
      "راف": 4667,
      "اس": 4668,
      "الروم": 4669,
      "احت": 4670,
      "ألف": 4671,
      "فين": 4672,
      "ائر": 4673,
      "بان": 4674,
      "نظام": 4675,
      "رج": 4676,
      "موس": 4677,
      "زم": 4678,
      "مجموعة": 4679,
      "جتمع": 4680,
      "المسي": 4681,
      "الوقت": 4682,
      "دين": 4683,
      "عبر": 4684,
      "لاعب": 4685,
      "خاصة": 4686,
      "تل": 4687,
      "سكر": 4688,
      "ولم": 4689,
      "غي": 4690,
      "فقط": 4691,
      "معظم": 4692,
      "السكان": 4693,
      "شرة": 4694,
      "الثانية": 4695,
      "رائيل": 4696,
      "جمع": 4697,
      "طول": 4698,
      "لمة": 4699,
      "فضل": 4700,
      "ترك": 4701,
      "ظمة": 4702,
      "وحي": 4703,
      "روس": 4704,
      "ابات": 4705,
      "غل": 4706,
      "روف": 4707,
      "طار": 4708,
      "الإنجلي": 4709,
      "امة": 4710,
      "نت": 4711,
      "الثالث": 4712,
      "الاتحاد": 4713,
      "مش": 4714,
      "تك": 4715,
      "الأد": 4716,
      "لاء": 4717,
      "الأك": 4718,
      "وأن": 4719,
      "بيل": 4720,
      "واس": 4721,
      "in": 4722,
      "براط": 4723,
      "رح": 4724,
      "ختلفة": 4725,
      "صار": 4726,
      "درا": 4727,
      "جامعة": 4728,
      "وبعد": 4729,
      "حدث": 4730,
      "لين": 4731,
      "ضة": 4732,
      "on": 4733,
      "فه": 4734,
      "دولة": 4735,
      "الحكومة": 4736,
      "فترة": 4737,
      "الشر": 4738,
      "خارج": 4739,
      "نادي": 4740,
      "أل": 4741,
      "كيل": 4742,
      "العلم": 4743,
      "هور": 4744,
      "الهند": 4745,
      "يمة": 4746,
      "استخدام": 4747,
      "التق": 4748,
      "نق": 4749,
      "نوع": 4750,
      "الجيش": 4751,
      "الدي": 4752,
      "ادي": 4753,
      "أصبح": 4754,
      "شرين": 4755,
      "يران": 4756,
      "30": 4757,
      "كو": 4758,
      "نحو": 4759,
      "الشع": 4760,
      "هار": 4761,
      "فار": 4762,
      "الفترة": 4763,
      "مُ": 4764,
      "الطبي": 4765,
      "آن": 4766,
      "شاء": 4767,
      "لية": 4768,
      "دور": 4769,
      "اصمة": 4770,
      "كبيرة": 4771,
      "ودي": 4772,
      "أت": 4773,
      "عهد": 4774,
      "رم": 4775,
      "بالإضافة": 4776,
      "الخاص": 4777,
      "بإ": 4778,
      "لإ": 4779,
      "كام": 4780,
      "بري": 4781,
      "راضي": 4782,
      "الأوروب": 4783,
      "ألم": 4784,
      "البريط": 4785,
      "داخل": 4786,
      "يص": 4787,
      "قيق": 4788,
      "25": 4789,
      "درجة": 4790,
      "واحدة": 4791,
      "افظة": 4792,
      "بول": 4793,
      "اند": 4794,
      "ادر": 4795,
      "بينما": 4796,
      "..": 4797,
      "أف": 4798,
      "منه": 4799,
      "الرياض": 4800,
      "تيجة": 4801,
      "انتخ": 4802,
      "ستان": 4803,
      "مركز": 4804,
      "وخ": 4805,
      "اليون": 4806,
      "مليون": 4807,
      "بور": 4808,
      "en": 4809,
      "مجلس": 4810,
      "بناء": 4811,
      "عاد": 4812,
      "إذ": 4813,
      "ولاية": 4814,
      "طن": 4815,
      "أسا": 4816,
      "السن": 4817,
      "عداد": 4818,
      "والح": 4819,
      "وغير": 4820,
      "طية": 4821,
      "ونية": 4822,
      "ضاء": 4823,
      "العثم": 4824,
      "شركة": 4825,
      "تقد": 4826,
      "أق": 4827,
      "باست": 4828,
      "يسة": 4829,
      "القديمة": 4830,
      "يول": 4831,
      "جزء": 4832,
      "فيما": 4833,
      "امج": 4834,
      "جري": 4835,
      "شمال": 4836,
      "ضع": 4837,
      "وريا": 4838,
      "سام": 4839,
      "ورد": 4840,
      "أحمد": 4841,
      "خرج": 4842,
      "هدف": 4843,
      "193": 4844,
      "عين": 4845,
      "العالمية": 4846,
      "واقع": 4847,
      "الأص": 4848,
      "ياه": 4849,
      "بغ": 4850,
      "السع": 4851,
      "براطورية": 4852,
      "نس": 4853,
      "روا": 4854,
      "عملية": 4855,
      "الأر": 4856,
      "قات": 4857,
      "العربي": 4858,
      "فري": 4859,
      "شرق": 4860,
      "بس": 4861,
      "ضًا": 4862,
      "الأش": 4863,
      "الشيخ": 4864,
      "خلي": 4865,
      "تحد": 4866,
      "الحكم": 4867,
      "لال": 4868,
      "اط": 4869,
      "داد": 4870,
      "al": 4871,
      "التح": 4872,
      "امي": 4873,
      "صة": 4874,
      "السا": 4875,
      "أثناء": 4876,
      "حسب": 4877,
      "الأمريكية": 4878,
      "ريف": 4879,
      "تفاع": 4880,
      "تُ": 4881,
      "ستر": 4882,
      "لاج": 4883,
      "إسرائيل": 4884,
      "بالن": 4885,
      "عرض": 4886,
      "تقع": 4887,
      "كثير": 4888,
      "بش": 4889,
      "عليم": 4890,
      "سنوات": 4891,
      "عدم": 4892,
      "حرب": 4893,
      "جما": 4894,
      "تشار": 4895,
      "دار": 4896,
      "عضاء": 4897,
      "ركات": 4898,
      "هن": 4899,
      "نائ": 4900,
      "سيم": 4901,
      "لأن": 4902,
      "ريقة": 4903,
      "كري": 4904,
      "ليس": 4905,
      "الألم": 4906,
      "الأسا": 4907,
      "نهاية": 4908,
      "بالق": 4909,
      "باد": 4910,
      "الأمير": 4911,
      "الصح": 4912,
      "11": 4913,
      "الحم": 4914,
      "المناطق": 4915,
      "يرا": 4916,
      "ar": 4917,
      "ينات": 4918,
      "انا": 4919,
      "الإسلامية": 4920,
      "امية": 4921,
      "زيز": 4922,
      "الهي": 4923,
      "وعلى": 4924,
      "نش": 4925,
      "نى": 4926,
      "فص": 4927,
      "أيضًا": 4928,
      "سيس": 4929,
      "نم": 4930,
      "قاب": 4931,
      "ويكي": 4932,
      "كأس": 4933,
      "فريقيا": 4934,
      "دائ": 4935,
      "عني": 4936,
      "ترا": 4937,
      "نع": 4938,
      "بأ": 4939,
      "الناس": 4940,
      "21": 4941,
      "وفيات": 4942,
      "انة": 4943,
      "فية": 4944,
      "الخط": 4945,
      "جانب": 4946,
      "قتل": 4947,
      "والإ": 4948,
      "سكرية": 4949,
      "العم": 4950,
      "تمد": 4951,
      "اما": 4952,
      "وبة": 4953,
      "بني": 4954,
      "or": 4955,
      "المسلمين": 4956,
      "مغ": 4957,
      "واليد": 4958,
      "القدم": 4959,
      "سون": 4960,
      "سمة": 4961,
      "الكثير": 4962,
      "لع": 4963,
      "يك": 4964,
      "جار": 4965,
      "اهرة": 4966,
      "هرب": 4967,
      "نفسه": 4968,
      "أهل": 4969,
      "الوسط": 4970,
      "بلاد": 4971,
      "فرنسا": 4972,
      "مين": 4973,
      "غيرة": 4974,
      "الجام": 4975,
      "أكت": 4976,
      "يوجد": 4977,
      "الدا": 4978,
      "الغربية": 4979,
      "التالي": 4980,
      "حيط": 4981,
      "الها": 4982,
      "بيديا": 4983,
      "البا": 4984,
      "العد": 4985,
      "22": 4986,
      "صرية": 4987,
      "كث": 4988,
      "ويكيبيديا": 4989,
      "دري": 4990,
      "يؤ": 4991,
      "ثلاثة": 4992,
      "راب": 4993,
      "قيقة": 4994,
      "es": 4995,
      "ولوج": 4996,
      "والن": 4997,
      "بحت": 4998,
      "الاجتما": 4999,
      "المرا": 5000,
      "وء": 5001,
      "50": 5002,
      "العامة": 5003,
      "طلب": 5004,
      "واجه": 5005,
      "الحيو": 5006,
      "ثار": 5007,
      "سمي": 5008,
      "البح": 5009,
      "الحياة": 5010,
      "ئا": 5011,
      "جرة": 5012,
      "أكتوبر": 5013,
      "لس": 5014,
      "وحد": 5015,
      "حلة": 5016,
      "ميل": 5017,
      "ناصر": 5018,
      "انتق": 5019,
      "الإنجليزية": 5020,
      "رش": 5021,
      "ويس": 5022,
      "مبر": 5023,
      "شهر": 5024,
      "أصبحت": 5025,
      "وعات": 5026,
      "الشعب": 5027,
      "وله": 5028,
      "جات": 5029,
      "اكت": 5030,
      "رع": 5031,
      "مز": 5032,
      "يناير": 5033,
      "مرت": 5034,
      "أعل": 5035,
      "كات": 5036,
      "هير": 5037,
      "24": 5038,
      "إنشاء": 5039,
      "23": 5040,
      "عالم": 5041,
      "مارس": 5042,
      "الخلا": 5043,
      "وكذلك": 5044,
      "السنة": 5045,
      "إحد": 5046,
      "محا": 5047,
      "الحد": 5048,
      "بدأت": 5049,
      "العصر": 5050,
      "والق": 5051,
      "ئيسي": 5052,
      "لدي": 5053,
      "جين": 5054,
      "دخل": 5055,
      "الاحت": 5056,
      "الأمر": 5057,
      "لاً": 5058,
      "لأ": 5059,
      "خذ": 5060,
      "هيم": 5061,
      "ياً": 5062,
      "جيش": 5063,
      "باط": 5064,
      "وصف": 5065,
      "نسبة": 5066,
      "جاه": 5067,
      "التص": 5068,
      "وقف": 5069,
      "المملكة": 5070,
      "الحا": 5071,
      "الأرد": 5072,
      "لعب": 5073,
      "ريل": 5074,
      "بداية": 5075,
      "ألمانيا": 5076,
      "سلة": 5077,
      "القوات": 5078,
      "جوم": 5079,
      "ِّ": 5080,
      "لهم": 5081,
      "صح": 5082,
      "الاقتصاد": 5083,
      "at": 5084,
      "الخلي": 5085,
      "اللغ": 5086,
      "الخام": 5087,
      "الوز": 5088,
      "الكن": 5089,
      "خم": 5090,
      "للت": 5091,
      "يوليو": 5092,
      "ومات": 5093,
      "المغرب": 5094,
      "ربعة": 5095,
      "أنواع": 5096,
      "نوف": 5097,
      "الآن": 5098,
      "حالة": 5099,
      "ارت": 5100,
      "أشهر": 5101,
      "إنتاج": 5102,
      "ومة": 5103,
      "مواليد": 5104,
      "الوطني": 5105,
      "صنا": 5106,
      "مون": 5107,
      "المُ": 5108,
      "الميلاد": 5109,
      "أة": 5110,
      "ليا": 5111,
      "التا": 5112,
      "جمه": 5113,
      "لاست": 5114,
      "لاع": 5115,
      "هود": 5116,
      "القط": 5117,
      "زوج": 5118,
      "سكري": 5119,
      "تقري": 5120,
      "المغ": 5121,
      "النظام": 5122,
      "كور": 5123,
      "التش": 5124,
      "افية": 5125,
      "يونيو": 5126,
      "ارس": 5127,
      "رفة": 5128,
      "الطا": 5129,
      "تون": 5130,
      "منهم": 5131,
      "جاء": 5132,
      "وحدة": 5133,
      "كمة": 5134,
      "الدم": 5135,
      "نهر": 5136,
      "المش": 5137,
      "آل": 5138,
      "قسم": 5139,
      "رخ": 5140,
      "صلاح": 5141,
      "سمبر": 5142,
      "ذهب": 5143,
      "التن": 5144,
      "ديم": 5145,
      "الثق": 5146,
      "باراة": 5147,
      "المركز": 5148,
      "الإنسان": 5149,
      "توفي": 5150,
      "الفن": 5151,
      "الثلاث": 5152,
      "المث": 5153,
      "أخذ": 5154,
      "وتم": 5155,
      "ديسمبر": 5156,
      "ائزة": 5157,
      "طالب": 5158,
      "جيل": 5159,
      "صبح": 5160,
      "مقرا": 5161,
      "إليه": 5162,
      "الموا": 5163,
      "مم": 5164,
      "حات": 5165,
      "الشرقية": 5166,
      "يكن": 5167,
      "الساد": 5168,
      "ثة": 5169,
      "القد": 5170,
      "تخب": 5171,
      "ائي": 5172,
      "عرب": 5173,
      "الشخص": 5174,
      "فظ": 5175,
      "27": 5176,
      "فلسط": 5177,
      "الجزيرة": 5178,
      "مكان": 5179,
      "بريط": 5180,
      "جون": 5181,
      "ليات": 5182,
      "ليون": 5183,
      "الخاصة": 5184,
      "نات": 5185,
      "للح": 5186,
      "همة": 5187,
      "راع": 5188,
      "الشمالية": 5189,
      "المج": 5190,
      "يري": 5191,
      "الرس": 5192,
      "يرات": 5193,
      "تمر": 5194,
      "يار": 5195,
      "تمبر": 5196,
      "نز": 5197,
      "نص": 5198,
      "متر": 5199,
      "إحدى": 5200,
      "وتر": 5201,
      "عتبر": 5202,
      "شاط": 5203,
      "نشر": 5204,
      "سلي": 5205,
      "وفر": 5206,
      "لاب": 5207,
      "الفلسط": 5208,
      "معد": 5209,
      "ولن": 5210,
      "تط": 5211,
      "أصل": 5212,
      "أجل": 5213,
      "فات": 5214,
      "أقل": 5215,
      "مايو": 5216,
      "موقع": 5217,
      "واج": 5218,
      "الفرنسي": 5219,
      "المسا": 5220,
      "is": 5221,
      "اش": 5222,
      "ic": 5223,
      "مختلفة": 5224,
      "المه": 5225,
      "سبتمبر": 5226,
      "مض": 5227,
      "منت": 5228,
      "بص": 5229,
      "مناطق": 5230,
      "عائ": 5231,
      "الإمبراطورية": 5232,
      "النبي": 5233,
      "اللي": 5234,
      "الوسطى": 5235,
      "الفرنسية": 5236,
      "قرار": 5237,
      "البلد": 5238,
      "ظيم": 5239,
      "قاد": 5240,
      "انيين": 5241,
      "ارب": 5242,
      "يعتبر": 5243,
      "ئات": 5244,
      "جمهورية": 5245,
      "يته": 5246,
      "تحدث": 5247,
      "الشمال": 5248,
      "نوفمبر": 5249,
      "جديدة": 5250,
      "ساء": 5251,
      "شعب": 5252,
      "الصنا": 5253,
      "الباب": 5254,
      "ربة": 5255,
      "لون": 5256,
      "سيد": 5257,
      "برى": 5258,
      "ثق": 5259,
      "28": 5260,
      "النها": 5261,
      "المصري": 5262,
      "آسيا": 5263,
      "جزيرة": 5264,
      "نسمة": 5265,
      "أدى": 5266,
      "سطس": 5267,
      "ونات": 5268,
      "أبريل": 5269,
      "عى": 5270,
      "26": 5271,
      "أمر": 5272,
      "بِ": 5273,
      "فوق": 5274,
      "شم": 5275,
      "عقد": 5276,
      "فيا": 5277,
      "قى": 5278,
      "تعد": 5279,
      "وست": 5280,
      "وحيد": 5281,
      "رأس": 5282,
      "محافظة": 5283,
      "الأمريكي": 5284,
      "بيت": 5285,
      "لادي": 5286,
      "جعل": 5287,
      "أمام": 5288,
      "غط": 5289,
      "وها": 5290,
      "المز": 5291,
      "وهذا": 5292,
      "تعتبر": 5293,
      "زن": 5294,
      "حركة": 5295,
      "كذلك": 5296,
      "المجم": 5297,
      "ابه": 5298,
      "يميا": 5299,
      "he": 5300,
      "إيط": 5301,
      "واض": 5302,
      "تميز": 5303,
      "شاف": 5304,
      "قه": 5305,
      "شهد": 5306,
      "للأ": 5307,
      "جها": 5308,
      "لغة": 5309,
      "أغسطس": 5310,
      "عنه": 5311,
      "وادي": 5312,
      "ورج": 5313,
      "رير": 5314,
      "اتها": 5315,
      "شبه": 5316,
      "برز": 5317,
      "مراجع": 5318,
      "خفض": 5319,
      "الجديدة": 5320,
      "كانوا": 5321,
      "قدر": 5322,
      "سفة": 5323,
      "الزرا": 5324,
      "للإ": 5325,
      "وائل": 5326,
      "للك": 5327,
      "معا": 5328,
      "السي": 5329,
      "2006": 5330,
      "طلاق": 5331,
      "ضي": 5332,
      "تهم": 5333,
      "الجنوبية": 5334,
      "الإسلامي": 5335,
      "قوات": 5336,
      "المرت": 5337,
      "الترك": 5338,
      "تنا": 5339,
      "فور": 5340,
      "ائد": 5341,
      "ريد": 5342,
      "المعروف": 5343,
      "السوفي": 5344,
      "الدرا": 5345,
      "وإن": 5346,
      "المدن": 5347,
      "مستوى": 5348,
      "العزيز": 5349,
      "مدر": 5350,
      "لما": 5351,
      "نين": 5352,
      "لذلك": 5353,
      "جاز": 5354,
      "ياد": 5355,
      "أفضل": 5356,
      "المجتمع": 5357,
      "المقد": 5358,
      "وقال": 5359,
      "وام": 5360,
      "الاسم": 5361,
      "هام": 5362,
      "براير": 5363,
      "الوطنية": 5364,
      "سلحة": 5365,
      "أمريكي": 5366,
      "السياسية": 5367,
      "السعودية": 5368,
      "فاق": 5369,
      "انتخابات": 5370,
      "أعضاء": 5371,
      "جدا": 5372,
      "أعمال": 5373,
      "ندية": 5374,
      "جنة": 5375,
      "البشر": 5376,
      "وبين": 5377,
      "40": 5378,
      "لكتر": 5379,
      "وصول": 5380,
      "بواس": 5381,
      "والس": 5382,
      "قامت": 5383,
      "المصرية": 5384,
      "سطح": 5385,
      "29": 5386,
      "اغ": 5387,
      "النف": 5388,
      "الآخر": 5389,
      "لدى": 5390,
      "لو": 5391,
      "شروع": 5392,
      "السلطان": 5393,
      "فتح": 5394,
      "فبراير": 5395,
      "افت": 5396,
      "الأراضي": 5397,
      "صي": 5398,
      "الكتاب": 5399,
      "الدولي": 5400,
      "كين": 5401,
      "الدوري": 5402,
      "الماء": 5403,
      "العشرين": 5404,
      "طوي": 5405,
      "شق": 5406,
      "يعرف": 5407,
      "هاء": 5408,
      "يعد": 5409,
      "نقل": 5410,
      "لاقة": 5411,
      "مبا": 5412,
      "اذ": 5413,
      "بواسطة": 5414,
      "حدود": 5415,
      "تقريبا": 5416,
      "ليب": 5417,
      "جراء": 5418,
      "ميم": 5419,
      "عيد": 5420,
      "الخارج": 5421,
      "ريم": 5422,
      "خلا": 5423,
      "الحزب": 5424,
      "براهيم": 5425,
      "ظهرت": 5426,
      "البط": 5427,
      "ارتفاع": 5428,
      "لِ": 5429,
      "زمة": 5430,
      "لبن": 5431,
      "واب": 5432,
      "جائزة": 5433,
      "يحت": 5434,
      "نتيجة": 5435,
      "الظ": 5436,
      "تمام": 5437,
      "ياس": 5438,
      "ساعد": 5439,
      "زو": 5440,
      "الكون": 5441,
      "توجد": 5442,
      "بطولة": 5443,
      "جزاء": 5444,
      "إدارة": 5445,
      "لز": 5446,
      "الفريق": 5447,
      "يقول": 5448,
      "الطب": 5449,
      "سلم": 5450,
      "موا": 5451,
      "أوا": 5452,
      "كال": 5453,
      "مؤس": 5454,
      "تاب": 5455,
      "ثي": 5456,
      "رياض": 5457,
      "الحديثة": 5458,
      "لكل": 5459,
      "غا": 5460,
      "العسكرية": 5461,
      "امن": 5462,
      "قلال": 5463,
      "الأكثر": 5464,
      "المخ": 5465,
      "التاسع": 5466,
      "طات": 5467,
      "ماد": 5468,
      "الحض": 5469,
      "سلسلة": 5470,
      "it": 5471,
      "190": 5472,
      "لكرة": 5473,
      "المم": 5474,
      "حلية": 5475,
      "الحق": 5476,
      "ابت": 5477,
      "الموج": 5478,
      "ناة": 5479,
      "الفر": 5480,
      "وفاة": 5481,
      "ماع": 5482,
      "السلطة": 5483,
      "فير": 5484,
      "طاق": 5485,
      "صالح": 5486,
      "سبيل": 5487,
      "الكبير": 5488,
      "السود": 5489,
      "الإد": 5490,
      "حزب": 5491,
      "العلماء": 5492,
      "60": 5493,
      "اللا": 5494,
      "تستخدم": 5495,
      "بكر": 5496,
      "المق": 5497,
      "الأع": 5498,
      "حاليا": 5499,
      "خة": 5500,
      "طلح": 5501,
      "اللغات": 5502,
      "حاء": 5503,
      "خارجية": 5504,
      "باع": 5505,
      "صدر": 5506,
      "جديد": 5507,
      "بنى": 5508,
      "حصل": 5509,
      "زين": 5510,
      "القانون": 5511,
      "ليف": 5512,
      "مو": 5513,
      "العاصمة": 5514,
      "الأمم": 5515,
      "أثر": 5516,
      "باني": 5517,
      "معركة": 5518,
      "الرئيسي": 5519,
      "التقلي": 5520,
      "منظمة": 5521,
      "أيضاً": 5522,
      "روم": 5523,
      "مك": 5524,
      "طائ": 5525,
      "أعلى": 5526,
      "أيام": 5527,
      "لاقات": 5528,
      "الكنيسة": 5529,
      "ريات": 5530,
      "الجمع": 5531,
      "الدولية": 5532,
      "ويد": 5533,
      "الرئيسية": 5534,
      "إي": 5535,
      "مات": 5536,
      "منع": 5537,
      "الجديد": 5538,
      "الحص": 5539,
      "تأثير": 5540,
      "الرح": 5541,
      "الثورة": 5542,
      "سمح": 5543,
      "الكبرى": 5544,
      "للع": 5545,
      "طفال": 5546,
      "أمريكا": 5547,
      "جمة": 5548,
      "يجب": 5549,
      "أه": 5550,
      "شارك": 5551,
      "الدر": 5552,
      "الجمه": 5553,
      "قض": 5554,
      "إليها": 5555,
      "جلت": 5556,
      "برن": 5557,
      "وتق": 5558,
      "قليم": 5559,
      "خرا": 5560,
      "التر": 5561,
      "السابق": 5562,
      "2005": 5563,
      "ol": 5564,
      "فلا": 5565,
      "هاب": 5566,
      "العثمانية": 5567,
      "يبلغ": 5568,
      "مقاب": 5569,
      "السياسي": 5570,
      "وحة": 5571,
      "ذر": 5572,
      "الإيط": 5573,
      "باس": 5574,
      "ينيات": 5575,
      "ادات": 5576,
      "سيط": 5577,
      "قاطعة": 5578,
      "سح": 5579,
      "بالنسبة": 5580,
      "الموسي": 5581,
      "لتح": 5582,
      "فلسطين": 5583,
      "رؤ": 5584,
      "عود": 5585,
      "وهم": 5586,
      "الجزء": 5587,
      "نيا": 5588,
      "الداخل": 5589,
      "يستخدم": 5590,
      "يقوم": 5591,
      "أرض": 5592,
      "الجما": 5593,
      "البار": 5594,
      "كلمة": 5595,
      "وتح": 5596,
      "الرابع": 5597,
      "هداف": 5598,
      "راز": 5599,
      "وتش": 5600,
      "البريطانية": 5601,
      "جبل": 5602,
      "ارك": 5603,
      "إسب": 5604,
      "ملا": 5605,
      "اقت": 5606,
      "أنش": 5607,
      "دولار": 5608,
      "بأنه": 5609,
      "يوس": 5610,
      "2000": 5611,
      "بيض": 5612,
      "أسس": 5613,
      "بالأ": 5614,
      "تشكل": 5615,
      "ربون": 5616,
      "الحركة": 5617,
      "الأوروبي": 5618,
      "ريب": 5619,
      "الإسب": 5620,
      "الطاقة": 5621,
      "والص": 5622,
      "فران": 5623,
      "وجين": 5624,
      "فصل": 5625,
      "إضافة": 5626,
      "فيلم": 5627,
      "بحر": 5628,
      "أحداث": 5629,
      "إيطاليا": 5630,
      "والده": 5631,
      "طاع": 5632,
      "ولات": 5633,
      "100": 5634,
      "ده": 5635,
      "لمدة": 5636,
      "البعض": 5637,
      "القرآن": 5638,
      "الغربي": 5639,
      "تأسيس": 5640,
      "النادي": 5641,
      "شل": 5642,
      "دو": 5643,
      "رفض": 5644,
      "شترا": 5645,
      "إبراهيم": 5646,
      "انيون": 5647,
      "مدن": 5648,
      "فلام": 5649,
      "القاهرة": 5650,
      "لام": 5651,
      "نوب": 5652,
      "كندر": 5653,
      "فيذ": 5654,
      "الكهرب": 5655,
      "أنحاء": 5656,
      "فان": 5657,
      "كلا": 5658,
      "يخ": 5659,
      "بكة": 5660,
      "أفريقيا": 5661,
      "2008": 5662,
      "علماء": 5663,
      "باح": 5664,
      "ُّ": 5665,
      "النبات": 5666,
      "كلية": 5667,
      "التعليم": 5668,
      "قانون": 5669,
      "المسيحية": 5670,
      "منح": 5671,
      "خدمة": 5672,
      "ستور": 5673,
      "بلا": 5674,
      "ورك": 5675,
      "ويق": 5676,
      "عاصمة": 5677,
      "وغيرها": 5678,
      "وسية": 5679,
      "مدرسة": 5680,
      "سلسل": 5681,
      "المياه": 5682,
      "حض": 5683,
      "الكويت": 5684,
      "نب": 5685,
      "ومي": 5686,
      "اك": 5687,
      "وفقا": 5688,
      "2007": 5689,
      "اتي": 5690,
      "الشمس": 5691,
      "التع": 5692,
      "اعر": 5693,
      "فقال": 5694,
      "والث": 5695,
      "بغداد": 5696,
      "لاحظ": 5697,
      "قائمة": 5698,
      "صحي": 5699,
      "قوة": 5700,
      "اقتصاد": 5701,
      "الطائ": 5702,
      "فهو": 5703,
      "تطور": 5704,
      "2010": 5705,
      "الديمقرا": 5706,
      "المحيط": 5707,
      "عصر": 5708,
      "موج": 5709,
      "el": 5710,
      "الأخيرة": 5711,
      "غان": 5712,
      "حياته": 5713,
      "لول": 5714,
      "البل": 5715,
      "مرك": 5716,
      "تغ": 5717,
      "هند": 5718,
      "الثامن": 5719,
      "ماية": 5720,
      "أسست": 5721,
      "ثمان": 5722,
      "الرومانية": 5723,
      "بريطانيا": 5724,
      "راقي": 5725,
      "دان": 5726,
      "اجتما": 5727,
      "بذلك": 5728,
      "ويات": 5729,
      "ويمكن": 5730,
      "إعادة": 5731,
      "السادس": 5732,
      "الشرقي": 5733,
      "80": 5734,
      "العصور": 5735,
      "لمان": 5736,
      "2004": 5737,
      "والش": 5738,
      "تؤ": 5739,
      "ظل": 5740,
      "حكومة": 5741,
      "اق": 5742,
      "وارد": 5743,
      "تاح": 5744,
      "البروت": 5745,
      "انظر": 5746,
      "كلم": 5747,
      "علق": 5748,
      "سير": 5749,
      "بو": 5750,
      "دير": 5751,
      "بالك": 5752,
      "المرك": 5753,
      "فاز": 5754,
      "نسب": 5755,
      "فهي": 5756,
      "صغيرة": 5757,
      "اتحاد": 5758,
      "جو": 5759,
      "عز": 5760,
      "دل": 5761,
      "قلة": 5762,
      "st": 5763,
      "رائي": 5764,
      "هة": 5765,
      "حسن": 5766,
      "بقيادة": 5767,
      "الأردن": 5768,
      "موسم": 5769,
      "غرا": 5770,
      "ابي": 5771,
      "النو": 5772,
      "السلام": 5773,
      "القديم": 5774,
      "ونة": 5775,
      "عار": 5776,
      "الحرارة": 5777,
      "نظرية": 5778,
      "اي": 5779,
      "تشر": 5780,
      "اهر": 5781,
      "صناعة": 5782,
      "مساحة": 5783,
      "مخ": 5784,
      "تحتوي": 5785,
      "ورات": 5786,
      "جورج": 5787,
      "هاد": 5788,
      "189": 5789,
      "دع": 5790,
      "المدر": 5791,
      "امت": 5792,
      "نصف": 5793,
      "يتها": 5794,
      "مختلف": 5795,
      "ئاسة": 5796,
      "الرحمن": 5797,
      "رسم": 5798,
      "تقل": 5799,
      "70": 5800,
      "حن": 5801,
      "علان": 5802,
      "قتصادي": 5803,
      "الخامس": 5804,
      "تعرض": 5805,
      "قرية": 5806,
      "لته": 5807,
      "امات": 5808,
      "دراسة": 5809,
      "جب": 5810,
      "أرسل": 5811,
      "المتوسط": 5812,
      "الوزراء": 5813,
      "ذاك": 5814,
      "شيء": 5815,
      "الموس": 5816,
      "المختلفة": 5817,
      "يقع": 5818,
      "سق": 5819,
      "الرب": 5820,
      "ابع": 5821,
      "وزير": 5822,
      "زيادة": 5823,
      "تحول": 5824,
      "يزيد": 5825,
      "عق": 5826,
      "شن": 5827,
      "القب": 5828,
      "كز": 5829,
      "جح": 5830,
      "يام": 5831,
      "أواخر": 5832,
      "حيان": 5833,
      "تسمى": 5834,
      "لقب": 5835,
      "مقد": 5836,
      "نيف": 5837,
      "القص": 5838,
      "أُ": 5839,
      "أربعة": 5840,
      "جزر": 5841,
      "شارة": 5842,
      "وتن": 5843,
      "الصين": 5844,
      "حاول": 5845,
      "والف": 5846,
      "أشخاص": 5847,
      "الأوروبية": 5848,
      "الأعمال": 5849,
      "العلوم": 5850,
      "الأز": 5851,
      "شري": 5852,
      "فيد": 5853,
      "الخلايا": 5854,
      "حديث": 5855,
      "سوريا": 5856,
      "الأف": 5857,
      "وبي": 5858,
      "ادية": 5859,
      "اج": 5860,
      "الشام": 5861,
      "عامل": 5862,
      "جلترا": 5863,
      "لوك": 5864,
      "واف": 5865,
      "باستخدام": 5866,
      "الأصل": 5867,
      "الأكبر": 5868,
      "الحديد": 5869,
      "الإمام": 5870,
      "واة": 5871,
      "أربع": 5872,
      "المثال": 5873,
      "le": 5874,
      "والك": 5875,
      "ؤول": 5876,
      "سرعة": 5877,
      "تتم": 5878,
      "عبارة": 5879,
      "2009": 5880,
      "يزة": 5881,
      "التقويم": 5882,
      "خصوص": 5883,
      "ولوجيا": 5884,
      "هرة": 5885,
      "تعرف": 5886,
      "الدينية": 5887,
      "الأغ": 5888,
      "شة": 5889,
      "براطور": 5890,
      "مجال": 5891,
      "المجلس": 5892,
      "فعل": 5893,
      "لقد": 5894,
      "مير": 5895,
      "وهناك": 5896,
      "خول": 5897,
      "خمس": 5898,
      "كلي": 5899,
      "تان": 5900,
      "باشا": 5901,
      "لندا": 5902,
      "معه": 5903,
      "يصل": 5904,
      "طيع": 5905,
      "صدار": 5906,
      "العالمي": 5907,
      "أج": 5908,
      "وَ": 5909,
      "بب": 5910,
      "بطة": 5911,
      "التأ": 5912,
      "الاخت": 5913,
      "قطاع": 5914,
      "يلي": 5915,
      "ومية": 5916,
      "المسيحي": 5917,
      "الزمن": 5918,
      "يعود": 5919,
      "قاومة": 5920,
      "الجمهورية": 5921,
      "مَ": 5922,
      "ّا": 5923,
      "تشمل": 5924,
      "ظهور": 5925,
      "وذج": 5926,
      "ion": 5927,
      "سلوب": 5928,
      "أعلن": 5929,
      "2003": 5930,
      "الجم": 5931,
      "تمي": 5932,
      "مباراة": 5933,
      "فاض": 5934,
      "حداث": 5935,
      "غيير": 5936,
      "ليين": 5937,
      "المض": 5938,
      "هيئة": 5939,
      "الحدود": 5940,
      "أمير": 5941,
      "عر": 5942,
      "2011": 5943,
      "مملكة": 5944,
      "وكل": 5945,
      "مرض": 5946,
      "فاء": 5947,
      "كول": 5948,
      "مثلة": 5949,
      "ناد": 5950,
      "يسمى": 5951,
      "ديل": 5952,
      "جهزة": 5953,
      "ro": 5954,
      "الخارجية": 5955,
      "إيران": 5956,
      "الحيوانات": 5957,
      "الروا": 5958,
      "re": 5959,
      "انته": 5960,
      "الجامعة": 5961,
      "هُ": 5962,
      "زع": 5963,
      "جير": 5964,
      "مكت": 5965,
      "عنها": 5966,
      "اليمن": 5967,
      "وزارة": 5968,
      "وبالتالي": 5969,
      "اليهود": 5970,
      "قامة": 5971,
      "خي": 5972,
      "فرد": 5973,
      "إنجلترا": 5974,
      "واص": 5975,
      "ماعيل": 5976,
      "عمار": 5977,
      "دينة": 5978,
      "السري": 5979,
      "البحرية": 5980,
      "الداخلية": 5981,
      "35": 5982,
      "المواد": 5983,
      "تقوم": 5984,
      "رغم": 5985,
      "وانين": 5986,
      "روسيا": 5987,
      "سطن": 5988,
      "الكاث": 5989,
      "لاعبو": 5990,
      "خطوط": 5991,
      "البريطاني": 5992,
      "عامة": 5993,
      "سد": 5994,
      "لبنان": 5995,
      "يزن": 5996,
      "هان": 5997,
      "وفق": 5998,
      "جبال": 5999,
      "مرات": 6000,
      "وافق": 6001,
      "غو": 6002,
      "عمليات": 6003,
      "كامل": 6004,
      "إسبانيا": 6005,
      "وليس": 6006,
      "العهد": 6007,
      "مط": 6008,
      "يعمل": 6009,
      "وبا": 6010,
      "انه": 6011,
      "قصر": 6012,
      "زال": 6013,
      "اللات": 6014,
      "برنامج": 6015,
      "تمكن": 6016,
      "عشرة": 6017,
      "تضم": 6018,
      "وته": 6019,
      "أور": 6020,
      "عاما": 6021,
      "خصص": 6022,
      "دمشق": 6023,
      "قار": 6024,
      "ائق": 6025,
      "العض": 6026,
      "الاقتصادية": 6027,
      "يوسف": 6028,
      "وبد": 6029,
      "كوك": 6030,
      "وسع": 6031,
      "هاجر": 6032,
      "لأول": 6033,
      "رجل": 6034,
      "أطلق": 6035,
      "ثناء": 6036,
      "ظام": 6037,
      "تكن": 6038,
      "الجسم": 6039,
      "اهدة": 6040,
      "مود": 6041,
      "راً": 6042,
      "يرية": 6043,
      "كيلوم": 6044,
      "زيا": 6045,
      "الكاثولي": 6046,
      "العليا": 6047,
      "لهذا": 6048,
      "الألمانية": 6049,
      "معروف": 6050,
      "اتهم": 6051,
      "عُ": 6052,
      "الاجتماعية": 6053,
      "المرض": 6054,
      "الملا": 6055,
      "سجل": 6056,
      "قري": 6057,
      "الأمن": 6058,
      "سباب": 6059,
      "انو": 6060,
      "طويلة": 6061,
      "الطبيعية": 6062,
      "يظهر": 6063,
      "غالب": 6064,
      "المؤرخ": 6065,
      "يعتقد": 6066,
      "العص": 6067,
      "اضي": 6068,
      "بدو": 6069,
      "تب": 6070,
      "شاركة": 6071,
      "بالف": 6072,
      "الحسن": 6073,
      "الأبيض": 6074,
      "وأك": 6075,
      "وحتى": 6076,
      "واعد": 6077,
      "تقدم": 6078,
      "المط": 6079,
      "رقم": 6080,
      "سعيد": 6081,
      "نه": 6082,
      "السنوات": 6083,
      "آثار": 6084,
      "سار": 6085,
      "سعود": 6086,
      "سياسي": 6087,
      "تنظيم": 6088,
      "جماعة": 6089,
      "186": 6090,
      "واصل": 6091,
      "بون": 6092,
      "وعية": 6093,
      "الجزائر": 6094,
      "أقدم": 6095,
      "الأب": 6096,
      "الخص": 6097,
      "مباشرة": 6098,
      "عديدة": 6099,
      "وسيا": 6100,
      "بروت": 6101,
      "الإسكندر": 6102,
      "ثورة": 6103,
      "هات": 6104,
      "ساهم": 6105,
      "أبرز": 6106,
      "زيد": 6107,
      "الصلي": 6108,
      "ثنا": 6109,
      "دد": 6110,
      "صابة": 6111,
      "الكب": 6112,
      "صاح": 6113,
      "جذ": 6114,
      "فسير": 6115,
      "عددة": 6116,
      "عليهم": 6117,
      "187": 6118,
      "بحث": 6119,
      "شك": 6120,
      "متح": 6121,
      "كنيسة": 6122,
      "جهة": 6123,
      "اليابان": 6124,
      "فاظ": 6125,
      "وبعض": 6126,
      "مشا": 6127,
      "شيد": 6128,
      "قيد": 6129,
      "قائد": 6130,
      "خمسة": 6131,
      "الفلسطينية": 6132,
      "لكنه": 6133,
      "لاحقا": 6134,
      "تطوير": 6135,
      "وصلات": 6136,
      "الخليفة": 6137,
      "جمالي": 6138,
      "2019": 6139,
      "ماك": 6140,
      "وعي": 6141,
      "النات": 6142,
      "المؤس": 6143,
      "الحكوم": 6144,
      "الملكية": 6145,
      "الكيميا": 6146,
      "روب": 6147,
      "عاب": 6148,
      "استمر": 6149,
      "حسين": 6150,
      "جية": 6151,
      "للغ": 6152,
      "غيل": 6153,
      "قدي": 6154,
      "ch": 6155,
      "الشكل": 6156,
      "منصب": 6157,
      "واسع": 6158,
      "الدفاع": 6159,
      "خار": 6160,
      "الإلكتر": 6161,
      "حياة": 6162,
      "جال": 6163,
      "محد": 6164,
      "نقطة": 6165,
      "2014": 6166,
      "جاب": 6167,
      "31": 6168,
      "يدة": 6169,
      "أنَّ": 6170,
      "ندا": 6171,
      "العسكري": 6172,
      "بمع": 6173,
      "المجموعة": 6174,
      "النص": 6175,
      "يور": 6176,
      "بعدها": 6177,
      "جاح": 6178,
      "قيام": 6179,
      "الأسود": 6180,
      "ندن": 6181,
      "188": 6182,
      "سري": 6183,
      "البيزن": 6184,
      "الأحمر": 6185,
      "فرض": 6186,
      "صورة": 6187,
      "أوائل": 6188,
      "الميلادي": 6189,
      "النس": 6190,
      "نطاق": 6191,
      "امتد": 6192,
      "مقر": 6193,
      "مقاطعة": 6194,
      "ذو": 6195,
      "رأ": 6196,
      "الأخير": 6197,
      "تمث": 6198,
      "باللغة": 6199,
      "غال": 6200,
      "ليست": 6201,
      "نفسها": 6202,
      "باريس": 6203,
      "موسي": 6204,
      "يؤدي": 6205,
      "تحديد": 6206,
      "إل": 6207,
      "بعضها": 6208,
      "شعر": 6209,
      "الأساسية": 6210,
      "ؤلاء": 6211,
      "بالس": 6212,
      "ذك": 6213,
      "تسمية": 6214,
      "ويا": 6215,
      "طع": 6216,
      "حقوق": 6217,
      "البن": 6218,
      "السابع": 6219,
      "اشت": 6220,
      "ونيا": 6221,
      "ائع": 6222,
      "45": 6223,
      "اعتبار": 6224,
      "عمان": 6225,
      "المجا": 6226,
      "90": 6227,
      "داية": 6228,
      "خلف": 6229,
      "ترن": 6230,
      "مسلم": 6231,
      "ارا": 6232,
      "لأنه": 6233,
      "الإسرائي": 6234,
      "لاحق": 6235,
      "لَ": 6236,
      "ملوك": 6237,
      "منتخب": 6238,
      "تحقيق": 6239,
      "لاة": 6240,
      "جيم": 6241,
      "بدا": 6242,
      "تصل": 6243,
      "كتابه": 6244,
      "حاكم": 6245,
      "واجهة": 6246,
      "عاية": 6247,
      "2002": 6248,
      "كسي": 6249,
      "لان": 6250,
      "المحلية": 6251,
      "ستة": 6252,
      "أهمية": 6253,
      "والب": 6254,
      "الصف": 6255,
      "وزيع": 6256,
      "طاقة": 6257,
      "لفزي": 6258,
      "التجارية": 6259,
      "2012": 6260,
      "إسماعيل": 6261,
      "et": 6262,
      "بحلول": 6263,
      "وتا": 6264,
      "عنوان": 6265,
      "2013": 6266,
      "ولكنه": 6267,
      "حب": 6268,
      "التجارة": 6269,
      "الأوسط": 6270,
      "يان": 6271,
      "مالك": 6272,
      "ولايات": 6273,
      "الموقع": 6274,
      "الثالثة": 6275,
      "الولاية": 6276,
      "رسول": 6277,
      "الجان": 6278,
      "of": 6279,
      "روما": 6280,
      "دت": 6281,
      "المسجد": 6282,
      "om": 6283,
      "والخ": 6284,
      "بنت": 6285,
      "بالع": 6286,
      "طريقة": 6287,
      "2001": 6288,
      "منتصف": 6289,
      "رام": 6290,
      "اصط": 6291,
      "الانت": 6292,
      "بـ": 6293,
      "لعام": 6294,
      "هز": 6295,
      "حمد": 6296,
      "الكبيرة": 6297,
      "الرق": 6298,
      "عالية": 6299,
      "قطع": 6300,
      "us": 6301,
      "الاشترا": 6302,
      "الشركة": 6303,
      "فاعل": 6304,
      "دوري": 6305,
      "تمثل": 6306,
      "تقديم": 6307,
      "ؤون": 6308,
      "ستخدم": 6309,
      "امر": 6310,
      "الترا": 6311,
      "قرب": 6312,
      "واسعة": 6313,
      "النوع": 6314,
      "قرر": 6315,
      "العملية": 6316,
      "بأنها": 6317,
      "الموجودة": 6318,
      "التالية": 6319,
      "الثقافة": 6320,
      "التاريخية": 6321,
      "بالقرب": 6322,
      "وسائل": 6323,
      "أساس": 6324,
      "كتابة": 6325,
      "القدس": 6326,
      "بحيث": 6327,
      "للق": 6328,
      "تو": 6329,
      "ماي": 6330,
      "نظر": 6331,
      "سو": 6332,
      "الطريق": 6333,
      "لهذه": 6334,
      "ائلة": 6335,
      "بعة": 6336,
      "أنهم": 6337,
      "فريقية": 6338,
      "لاك": 6339,
      "تعمل": 6340,
      "ثاني": 6341,
      "36": 6342,
      "الشعبية": 6343,
      "أسماء": 6344,
      "البطولة": 6345,
      "تمل": 6346,
      "بقى": 6347,
      "انتقل": 6348,
      "تحمل": 6349,
      "للا": 6350,
      "ائج": 6351,
      "الذه": 6352,
      "بيلة": 6353,
      "كير": 6354,
      "الطرق": 6355,
      "البرت": 6356,
      "النهر": 6357,
      "طرق": 6358,
      "الواق": 6359,
      "ِي": 6360,
      "as": 6361,
      "مشروع": 6362,
      "فاقية": 6363,
      "ُل": 6364,
      "اليه": 6365,
      "عَ": 6366,
      "دفع": 6367,
      "أجزاء": 6368,
      "اللبن": 6369,
      "دعم": 6370,
      "قصى": 6371,
      "ذه": 6372,
      "فهم": 6373,
      "مثال": 6374,
      "أراضي": 6375,
      "ظروف": 6376,
      "ig": 6377,
      "الرسمية": 6378,
      "شيخ": 6379,
      "الشمالي": 6380,
      "48": 6381,
      "يدا": 6382,
      "المعد": 6383,
      "عضو": 6384,
      "ابتد": 6385,
      "زياء": 6386,
      "راح": 6387,
      "رون": 6388,
      "وسا": 6389,
      "المعل": 6390,
      "ممثل": 6391,
      "المشت": 6392,
      "الهيدر": 6393,
      "التقليدية": 6394,
      "زرا": 6395,
      "وقعت": 6396,
      "ظاهر": 6397,
      "لندن": 6398,
      "am": 6399,
      "سواء": 6400,
      "ترنت": 6401,
      "راءة": 6402,
      "عامي": 6403,
      "حرارة": 6404,
      "مرحلة": 6405,
      "الاستقلال": 6406,
      "عبة": 6407,
      "وبات": 6408,
      "فرع": 6409,
      "and": 6410,
      "أعم": 6411,
      "بهذا": 6412,
      "اكتشاف": 6413,
      "سفي": 6414,
      "يمان": 6415,
      "مكة": 6416,
      "2015": 6417,
      "العظم": 6418,
      "كثيرة": 6419,
      "الإير": 6420,
      "مصطلح": 6421,
      "تبلغ": 6422,
      "وفاته": 6423,
      "ur": 6424,
      "زمن": 6425,
      "فرق": 6426,
      "فون": 6427,
      "مب": 6428,
      "المدرسة": 6429,
      "اريات": 6430,
      "فكرة": 6431,
      "الانتخابات": 6432,
      "العمر": 6433,
      "جاج": 6434,
      "ابعة": 6435,
      "اليونانية": 6436,
      "الألماني": 6437,
      "رجال": 6438,
      "شد": 6439,
      "والغ": 6440,
      "ضرب": 6441,
      "حقق": 6442,
      "باك": 6443,
      "وامل": 6444,
      "مقابل": 6445,
      "صال": 6446,
      "إسلام": 6447,
      "تشكيل": 6448,
      "يغ": 6449,
      "لقى": 6450,
      "الإمبراطور": 6451,
      "آنذاك": 6452,
      "روي": 6453,
      "ent": 6454,
      "قيم": 6455,
      "الأما": 6456,
      "باعت": 6457,
      "السابقة": 6458,
      "خري": 6459,
      "المكت": 6460,
      "النب": 6461,
      "وعندما": 6462,
      "نان": 6463,
      "الول": 6464,
      "ترات": 6465,
      "مصري": 6466,
      "33": 6467,
      "طرا": 6468,
      "جهاز": 6469,
      "ed": 6470,
      "تقال": 6471,
      "نو": 6472,
      "وراء": 6473,
      "العبا": 6474,
      "الفيلم": 6475,
      "العراقي": 6476,
      "مشت": 6477,
      "كاف": 6478,
      "برت": 6479,
      "الحالي": 6480,
      "أمين": 6481,
      "تغير": 6482,
      "إفريقيا": 6483,
      "فكان": 6484,
      "تال": 6485,
      "الفار": 6486,
      "خوان": 6487,
      "انتشار": 6488,
      "سور": 6489,
      "قيادة": 6490,
      "تمت": 6491,
      "بدور": 6492,
      "علام": 6493,
      "الأدب": 6494,
      "هؤلاء": 6495,
      "معدل": 6496,
      "عط": 6497,
      "جاوز": 6498,
      "سكانها": 6499,
      "قاء": 6500,
      "زر": 6501,
      "عان": 6502,
      "قناة": 6503,
      "البلدان": 6504,
      "يطرة": 6505,
      "الفلسطيني": 6506,
      "واجد": 6507,
      "مخت": 6508,
      "العناصر": 6509,
      "أصدر": 6510,
      "بنية": 6511,
      "ريك": 6512,
      "ثقافة": 6513,
      "عاون": 6514,
      "1998": 6515,
      "il": 6516,
      "1999": 6517,
      "الحسين": 6518,
      "الأسرة": 6519,
      "ّل": 6520,
      "ولندا": 6521,
      "حجم": 6522,
      "الغذ": 6523,
      "بهة": 6524,
      "قصة": 6525,
      "شخصية": 6526,
      "صوت": 6527,
      "أغلب": 6528,
      "قول": 6529,
      "الصغيرة": 6530,
      "يطلق": 6531,
      "الفض": 6532,
      "العلاج": 6533,
      "منة": 6534,
      "يتي": 6535,
      "سوق": 6536,
      "حساب": 6537,
      "وهذه": 6538,
      "تيب": 6539,
      "مور": 6540,
      "ac": 6541,
      "سياسة": 6542,
      "انق": 6543,
      "فوز": 6544,
      "العلمية": 6545,
      "الهواء": 6546,
      "شير": 6547,
      "يعيش": 6548,
      "إقليم": 6549,
      "ماً": 6550,
      "غار": 6551,
      "تدري": 6552,
      "حمل": 6553,
      "الحصول": 6554,
      "الته": 6555,
      "يعني": 6556,
      "تعال": 6557,
      "البابا": 6558,
      "جرى": 6559,
      "التحر": 6560,
      "ديو": 6561,
      "محمود": 6562,
      "والج": 6563,
      "||": 6564,
      "ضاف": 6565,
      "سه": 6566,
      "تيم": 6567,
      "خير": 6568,
      "معينة": 6569,
      "الجنوبي": 6570,
      "الخليج": 6571,
      "47": 6572,
      "يجعل": 6573,
      "وخاصة": 6574,
      "سلطة": 6575,
      "الأنواع": 6576,
      "آلاف": 6577,
      "1990": 6578,
      "الحي": 6579,
      "المدارس": 6580,
      "الأند": 6581,
      "لعاب": 6582,
      "عص": 6583,
      "الاقتصادي": 6584,
      "تشير": 6585,
      "انوية": 6586,
      "تعني": 6587,
      "خالد": 6588,
      "مثلا": 6589,
      "داً": 6590,
      "الدكت": 6591,
      "تونس": 6592,
      "طبيق": 6593,
      "قاعدة": 6594,
      "أفراد": 6595,
      "السوفيتي": 6596,
      "عكس": 6597,
      "ريح": 6598,
      "اعات": 6599,
      "سلطان": 6600,
      "مكون": 6601,
      "المادة": 6602,
      "بكرة": 6603,
      "بهم": 6604,
      "2016": 6605,
      "المخت": 6606,
      "زون": 6607,
      "ترب": 6608,
      "ابنه": 6609,
      "محاولة": 6610,
      "وأصبح": 6611,
      "تظهر": 6612,
      "استخدم": 6613,
      "البحث": 6614,
      "وطن": 6615,
      "الإسرائيلي": 6616,
      "العلاقات": 6617,
      "نصر": 6618,
      "ينغ": 6619,
      "بنفس": 6620,
      "القوة": 6621,
      "الرسمي": 6622,
      "الدور": 6623,
      "تعود": 6624,
      "الواقع": 6625,
      "الأقل": 6626,
      "يحدث": 6627,
      "يزال": 6628,
      "مجموع": 6629,
      "بدء": 6630,
      "الطبيعي": 6631,
      "المرحلة": 6632,
      "ارع": 6633,
      "القا": 6634,
      "تزال": 6635,
      "سليمان": 6636,
      "خطط": 6637,
      "مربع": 6638,
      "مسجد": 6639,
      "فأ": 6640,
      "ريا": 6641,
      "أصول": 6642,
      "ففي": 6643,
      "البرلمان": 6644,
      "المراجع": 6645,
      "قرا": 6646,
      "اللاتينية": 6647,
      "سياسية": 6648,
      "خان": 6649,
      "المجر": 6650,
      "وقام": 6651,
      "متوسط": 6652,
      "والر": 6653,
      "كذا": 6654,
      "فهوم": 6655,
      "خلق": 6656,
      "بسي": 6657,
      "الصوت": 6658,
      "السياسة": 6659,
      "ومنها": 6660,
      "37": 6661,
      "500": 6662,
      "اسمه": 6663,
      "الأطفال": 6664,
      "كلة": 6665,
      "الشعر": 6666,
      "تتكون": 6667,
      "زايد": 6668,
      "أبناء": 6669,
      "ريبة": 6670,
      "صنع": 6671,
      "بقية": 6672,
      "حال": 6673,
      "وزراء": 6674,
      "صرف": 6675,
      "البداية": 6676,
      "الخلافة": 6677,
      "ائدة": 6678,
      "متعددة": 6679,
      "لغات": 6680,
      "لفاء": 6681,
      "ادل": 6682,
      "الطريقة": 6683,
      "إير": 6684,
      "المشا": 6685,
      "طين": 6686,
      "وأي": 6687,
      "وصلت": 6688,
      "الوحيد": 6689,
      "ويورك": 6690,
      "تبع": 6691,
      "وتو": 6692,
      "أصح": 6693,
      "الزراعة": 6694,
      "):": 6695,
      "عتقد": 6696,
      "موض": 6697,
      "البشرية": 6698,
      "مليار": 6699,
      "عائلة": 6700,
      "ميت": 6701,
      "يمثل": 6702,
      "1991": 6703,
      "لائ": 6704,
      "العراقية": 6705,
      "درجات": 6706,
      "السيطرة": 6707,
      "تعا": 6708,
      "المعم": 6709,
      "المعار": 6710,
      "تبدأ": 6711,
      "الأعلى": 6712,
      "الجبل": 6713,
      "طوير": 6714,
      "الإيطالي": 6715,
      "لكي": 6716,
      "الغاز": 6717,
      "النيل": 6718,
      "بدون": 6719,
      "الآثار": 6720,
      "مادة": 6721,
      "ائص": 6722,
      "أدت": 6723,
      "شبكة": 6724,
      "شب": 6725,
      "هلية": 6726,
      "وأم": 6727,
      "قطر": 6728,
      "أست": 6729,
      "شفى": 6730,
      "id": 6731,
      "مهمة": 6732,
      "مؤلف": 6733,
      "الإنتاج": 6734,
      "الروسية": 6735,
      "الشخصية": 6736,
      "حز": 6737,
      "راوح": 6738,
      "الحالة": 6739,
      "أفلام": 6740,
      "النباتات": 6741,
      "معاهدة": 6742,
      "وحات": 6743,
      "الجها": 6744,
      "بيع": 6745,
      "اللون": 6746,
      "كاني": 6747,
      "قته": 6748,
      "إنجلي": 6749,
      "ثوذ": 6750,
      "المرتبة": 6751,
      "دى": 6752,
      "قيمة": 6753,
      "ميز": 6754,
      "38": 6755,
      "الكتب": 6756,
      "مسي": 6757,
      "القاد": 6758,
      "ضح": 6759,
      "فول": 6760,
      "حدوث": 6761,
      "السر": 6762,
      "ادت": 6763,
      "مائ": 6764,
      "البص": 6765,
      "افر": 6766,
      "مئ": 6767,
      "برية": 6768,
      "الجوية": 6769,
      "موسى": 6770,
      "المعروفة": 6771,
      "الدائ": 6772,
      "فإنه": 6773,
      "ندي": 6774,
      "عمرو": 6775,
      "بطال": 6776,
      "القبائل": 6777,
      "تية": 6778,
      "أنّ": 6779,
      "ظة": 6780,
      "الأحيان": 6781,
      "ائنات": 6782,
      "يدي": 6783,
      "1994": 6784,
      "السودان": 6785,
      "يحتوي": 6786,
      "الدراسات": 6787,
      "لط": 6788,
      "الجمعية": 6789,
      "ميد": 6790,
      "صاحب": 6791,
      "الكر": 6792,
      "نجد": 6793,
      "ّر": 6794,
      "نسخة": 6795,
      "يشكل": 6796,
      "المحت": 6797,
      "بيروت": 6798,
      "عدا": 6799,
      "المناخ": 6800,
      "حيوان": 6801,
      "وبية": 6802,
      "وفة": 6803,
      "استطاع": 6804,
      "un": 6805,
      "سبق": 6806,
      "عبير": 6807,
      "تولى": 6808,
      "تقويم": 6809,
      "ائف": 6810,
      "خلص": 6811,
      "تَ": 6812,
      "العثماني": 6813,
      "يمياء": 6814,
      "القمر": 6815,
      "ing": 6816,
      "\".": 6817,
      "سيطرة": 6818,
      "نور": 6819,
      "مواقع": 6820,
      "اختيار": 6821,
      "1996": 6822,
      "دن": 6823,
      "خور": 6824,
      "ريض": 6825,
      "النساء": 6826,
      "تنفيذ": 6827,
      "ناب": 6828,
      "المباراة": 6829,
      "ربما": 6830,
      "النق": 6831,
      "سورة": 6832,
      "نشاط": 6833,
      "نموذج": 6834,
      "مدى": 6835,
      "تبط": 6836,
      "شعبية": 6837,
      "شية": 6838,
      "شام": 6839,
      "بالح": 6840,
      "الرسول": 6841,
      "الأطل": 6842,
      "إجراء": 6843,
      "واط": 6844,
      "ياب": 6845,
      "ويين": 6846,
      "محت": 6847,
      "نائس": 6848,
      "بَ": 6849,
      "قافي": 6850,
      "أتي": 6851,
      "الأه": 6852,
      "فاف": 6853,
      "المحافظة": 6854,
      "القل": 6855,
      "الشت": 6856,
      "وحدات": 6857,
      "المجال": 6858,
      "نظيم": 6859,
      "العق": 6860,
      "باء": 6861,
      "راسة": 6862,
      "لاسي": 6863,
      "بلد": 6864,
      "تعيين": 6865,
      "باعتبار": 6866,
      "واي": 6867,
      "صغير": 6868,
      "شرف": 6869,
      "أشكال": 6870,
      "خمة": 6871,
      "مهم": 6872,
      "إطلاق": 6873,
      "تحرير": 6874,
      "فال": 6875,
      "عاش": 6876,
      "ثرية": 6877,
      "الرومان": 6878,
      "غالبا": 6879,
      "طبق": 6880,
      "عسكري": 6881,
      "ونا": 6882,
      "بحاث": 6883,
      "الإسرائيل": 6884,
      "درس": 6885,
      "موت": 6886,
      "حاس": 6887,
      "المسلمون": 6888,
      "فكر": 6889,
      "الإنترنت": 6890,
      "تركيا": 6891,
      "فيروس": 6892,
      "فاوض": 6893,
      "المحلي": 6894,
      "75": 6895,
      "زار": 6896,
      "الأل": 6897,
      "الملكي": 6898,
      "نبات": 6899,
      "مبي": 6900,
      "هرجان": 6901,
      "65": 6902,
      "سميت": 6903,
      "مارات": 6904,
      "أماكن": 6905,
      "الأق": 6906,
      "رَ": 6907,
      "أَ": 6908,
      "يفة": 6909,
      "سوى": 6910,
      "39": 6911,
      "الاجتماعي": 6912,
      "الني": 6913,
      "الإسكندرية": 6914,
      "الإسرائيلية": 6915,
      "انع": 6916,
      "ائه": 6917,
      "حملة": 6918,
      "واز": 6919,
      "ضية": 6920,
      "المالية": 6921,
      "185": 6922,
      "مقار": 6923,
      "غز": 6924,
      "كانية": 6925,
      "علوم": 6926,
      "اليهودية": 6927,
      "قابل": 6928,
      "بيا": 6929,
      "الماضي": 6930,
      "مجموعات": 6931,
      "والاست": 6932,
      "مجتمع": 6933,
      "الدرجة": 6934,
      "رواية": 6935,
      "ولو": 6936,
      "ناف": 6937,
      "عثمان": 6938,
      "تجات": 6939,
      "يتكون": 6940,
      "خلايا": 6941,
      "ونه": 6942,
      "الوصول": 6943,
      "قق": 6944,
      "بينها": 6945,
      "نيات": 6946,
      "1992": 6947,
      "كالي": 6948,
      "فرا": 6949,
      "دورا": 6950,
      "جمعية": 6951,
      "انتخاب": 6952,
      "ماري": 6953,
      "بنسبة": 6954,
      "الواقعة": 6955,
      "السين": 6956,
      "32": 6957,
      "كثيرا": 6958,
      "تفع": 6959,
      "احث": 6960,
      "الألعاب": 6961,
      "أسر": 6962,
      "ضغط": 6963,
      "زاب": 6964,
      "عنى": 6965,
      "حيانا": 6966,
      "فيصل": 6967,
      "الإنس": 6968,
      "جوز": 6969,
      "الشري": 6970,
      "العا": 6971,
      "وتقع": 6972,
      "الإنجليزي": 6973,
      "خراج": 6974,
      "اعي": 6975,
      "الصحي": 6976,
      "الإغ": 6977,
      "شاه": 6978,
      "سانت": 6979,
      "شهدت": 6980,
      "مارك": 6981,
      "ناحية": 6982,
      "الديمقراطية": 6983,
      "هنا": 6984,
      "القلب": 6985,
      "الثلاثة": 6986,
      "أسرة": 6987,
      "قاليم": 6988,
      "كبيرا": 6989,
      "القائ": 6990,
      "للاست": 6991,
      "رسالة": 6992,
      "ماس": 6993,
      "تقسيم": 6994,
      "أهداف": 6995,
      "يوش": 6996,
      "ثابت": 6997,
      "فو": 6998,
      "النظر": 6999,
      "الموسيقى": 7000,
      "فاد": 7001,
      "1997": 7002,
      "التس": 7003,
      "رفع": 7004,
      "اصيل": 7005,
      "وائية": 7006,
      "شارع": 7007,
      "النهاية": 7008,
      "ثور": 7009,
      "عدام": 7010,
      "تتبع": 7011,
      "نيويورك": 7012,
      "ئيسا": 7013,
      "ليد": 7014,
      "افع": 7015,
      "خدمات": 7016,
      "مرور": 7017,
      "قلية": 7018,
      "لهة": 7019,
      "خلاف": 7020,
      "النمسا": 7021,
      "بج": 7022,
      "بذ": 7023,
      "بوب": 7024,
      "فرنسي": 7025,
      "الياب": 7026,
      "فيات": 7027,
      "ليم": 7028,
      "أمريكيون": 7029,
      "كد": 7030,
      "الأكس": 7031,
      "إنه": 7032,
      "جنب": 7033,
      "يحمل": 7034,
      "علاقة": 7035,
      "افات": 7036,
      "1967": 7037,
      "نوعة": 7038,
      "ِن": 7039,
      "الكامل": 7040,
      "الحقي": 7041,
      "عسكرية": 7042,
      "كش": 7043,
      "الضوء": 7044,
      "اريا": 7045,
      "ُم": 7046,
      "الساحل": 7047,
      "المعاد": 7048,
      "لوم": 7049,
      "مياه": 7050,
      "ولكنها": 7051,
      "القارة": 7052,
      "قبائل": 7053,
      "تور": 7054,
      "الحال": 7055,
      "سيطر": 7056,
      "الدستور": 7057,
      "الذكر": 7058,
      "باه": 7059,
      "الروماني": 7060,
      "ولندي": 7061,
      "بالغ": 7062,
      "رافية": 7063,
      "الموت": 7064,
      "34": 7065,
      "لج": 7066,
      "ازد": 7067,
      "لويس": 7068,
      "الاحتلال": 7069,
      "القوى": 7070,
      "لجنة": 7071,
      "الصيف": 7072,
      "الصناعية": 7073,
      "العلمي": 7074,
      "كاتب": 7075,
      "برة": 7076,
      "وأس": 7077,
      "المقدس": 7078,
      "كوب": 7079,
      "التابعة": 7080,
      "بارك": 7081,
      "الجهاز": 7082,
      "180": 7083,
      "وند": 7084,
      "الرياضية": 7085,
      "الباحث": 7086,
      "خفاض": 7087,
      "لله": 7088,
      "افي": 7089,
      "الاعت": 7090,
      "البد": 7091,
      "ساعدة": 7092,
      "المحا": 7093,
      "يشير": 7094,
      "بشر": 7095,
      "التحرير": 7096,
      "حصول": 7097,
      "َّا": 7098,
      "مجلة": 7099,
      "رغ": 7100,
      "البيانات": 7101,
      "الذهب": 7102,
      "ــ": 7103,
      "الأور": 7104,
      "وحا": 7105,
      "بدلا": 7106,
      "الصحراء": 7107,
      "سقوط": 7108,
      "نج": 7109,
      "المستوى": 7110,
      "جزي": 7111,
      "ستراليا": 7112,
      "الكلمة": 7113,
      "الست": 7114,
      "شأ": 7115,
      "عربية": 7116,
      "للش": 7117,
      "يرى": 7118,
      "خليفة": 7119,
      "العدد": 7120,
      "بث": 7121,
      "المعركة": 7122,
      "أذ": 7123,
      "الكاثوليكية": 7124,
      "العملي": 7125,
      "الهر": 7126,
      "وابن": 7127,
      "الطبيعة": 7128,
      "يَ": 7129,
      "النار": 7130,
      "كيلومتر": 7131,
      "وسوف": 7132,
      "الحالية": 7133,
      "طرف": 7134,
      "سعد": 7135,
      "باقي": 7136,
      "بادئ": 7137,
      "تعلم": 7138,
      "النفط": 7139,
      "جرد": 7140,
      "امين": 7141,
      "ثانية": 7142,
      "كوين": 7143,
      "ريت": 7144,
      "حف": 7145,
      "سته": 7146,
      "صن": 7147,
      "التنا": 7148,
      "رئيسا": 7149,
      "القي": 7150,
      "حاق": 7151,
      "ليلة": 7152,
      "تغيير": 7153,
      "صبحت": 7154,
      "الأحداث": 7155,
      "ماغ": 7156,
      "الور": 7157,
      "وكالة": 7158,
      "المعلومات": 7159,
      "الفرد": 7160,
      "قُ": 7161,
      "حدد": 7162,
      "هنري": 7163,
      "ألب": 7164,
      "كادي": 7165,
      "the": 7166,
      "وحيدة": 7167,
      "الكيميائية": 7168,
      "الأساسي": 7169,
      "الانق": 7170,
      "وجهة": 7171,
      "سنان": 7172,
      "يتعلق": 7173,
      "النهائي": 7174,
      "ضايا": 7175,
      "الوق": 7176,
      "الكربون": 7177,
      "الممت": 7178,
      "ربية": 7179,
      "الجوي": 7180,
      "قاً": 7181,
      "عناصر": 7182,
      "جمال": 7183,
      "الكريم": 7184,
      "تأسست": 7185,
      "اربة": 7186,
      "النووي": 7187,
      "الدع": 7188,
      "ساس": 7189,
      "1948": 7190,
      "سابق": 7191,
      "مصدر": 7192,
      "فرقة": 7193,
      "برامج": 7194,
      "ويعتبر": 7195,
      "وأصبحت": 7196,
      "بلي": 7197,
      "الفق": 7198,
      "خفضة": 7199,
      "أعلنت": 7200,
      "رئيسي": 7201,
      "الضغط": 7202,
      "2017": 7203,
      "49": 7204,
      "رقية": 7205,
      "ad": 7206,
      "بعاد": 7207,
      "الأشخاص": 7208,
      "عرفت": 7209,
      "سلط": 7210,
      "الما": 7211,
      "ملايين": 7212,
      "يوخ": 7213,
      "ناه": 7214,
      "خرة": 7215,
      "طوال": 7216,
      "اللجنة": 7217,
      "\"،": 7218,
      "سوف": 7219,
      "ويتم": 7220,
      "البع": 7221,
      "ضان": 7222,
      "اعتق": 7223,
      "للد": 7224,
      "السورية": 7225,
      "خدمت": 7226,
      "الناتج": 7227,
      "الأو": 7228,
      "الألب": 7229,
      "المؤتمر": 7230,
      "باي": 7231,
      "وآ": 7232,
      "بحيرة": 7233,
      "تدخل": 7234,
      "فلم": 7235,
      "المسلحة": 7236,
      "ونها": 7237,
      "1995": 7238,
      "مصادر": 7239,
      "الأهلية": 7240,
      "جزءا": 7241,
      "فريقي": 7242,
      "غذ": 7243,
      "بالر": 7244,
      "والز": 7245,
      "بسرعة": 7246,
      "كيف": 7247,
      "هيل": 7248,
      "اليد": 7249,
      "الجزر": 7250,
      "مسر": 7251,
      "دمات": 7252,
      "حالات": 7253,
      "النقل": 7254,
      "الين": 7255,
      "مؤتمر": 7256,
      "الحملة": 7257,
      "موق": 7258,
      "سوا": 7259,
      "الوث": 7260,
      "العب": 7261,
      "قلب": 7262,
      "مدة": 7263,
      "الحل": 7264,
      "لديها": 7265,
      "حكوم": 7266,
      "جيمس": 7267,
      "تزوج": 7268,
      "رال": 7269,
      "الجة": 7270,
      "التون": 7271,
      "أساسي": 7272,
      "الكرة": 7273,
      "فيل": 7274,
      "بيين": 7275,
      "بعث": 7276,
      "اليونان": 7277,
      "مول": 7278,
      "تعتمد": 7279,
      "إمبراطورية": 7280,
      "هرت": 7281,
      "إصدار": 7282,
      "تقي": 7283,
      "الإيطالية": 7284,
      "سبوع": 7285,
      "الجانب": 7286,
      "قلعة": 7287,
      "ويُ": 7288,
      "رئاسة": 7289,
      "اليم": 7290,
      "بض": 7291,
      "الأمراض": 7292,
      "1993": 7293,
      "الموسم": 7294,
      "عمله": 7295,
      "إست": 7296,
      "سف": 7297,
      "تابعة": 7298,
      "الخل": 7299,
      "انضم": 7300,
      "أداء": 7301,
      "الكتابة": 7302,
      "ائها": 7303,
      "المبكرة": 7304,
      "كمية": 7305,
      "صاص": 7306,
      "الأجن": 7307,
      "طفى": 7308,
      "مطل": 7309,
      "مارسة": 7310,
      "الأعضاء": 7311,
      "بينهم": 7312,
      "قبيلة": 7313,
      "وإلى": 7314,
      "um": 7315,
      "يذكر": 7316,
      "عمره": 7317,
      "ويست": 7318,
      "العين": 7319,
      "خلالها": 7320,
      "هيار": 7321,
      "فيت": 7322,
      "محل": 7323,
      "خصوصا": 7324,
      "خطر": 7325,
      "صالات": 7326,
      "بورغ": 7327,
      "قصيرة": 7328,
      "الأرثوذ": 7329,
      "يقة": 7330,
      "تمتلك": 7331,
      "الأسر": 7332,
      "طبقة": 7333,
      "السف": 7334,
      "ظمات": 7335,
      "إما": 7336,
      "الشباب": 7337,
      "الفلك": 7338,
      "الجزائ": 7339,
      "مطار": 7340,
      "هولندا": 7341,
      "99": 7342,
      "جسم": 7343,
      "البيت": 7344,
      "باق": 7345,
      "أعداد": 7346,
      "هون": 7347,
      "وتع": 7348,
      "الفكر": 7349,
      "المركزية": 7350,
      "رسال": 7351,
      "لمي": 7352,
      "للس": 7353,
      "التف": 7354,
      "المرأة": 7355,
      "لكنها": 7356,
      "النشاط": 7357,
      "ضعف": 7358,
      "فقة": 7359,
      "شه": 7360,
      "توق": 7361,
      "بوا": 7362,
      "للن": 7363,
      "الخامسة": 7364,
      "جموعة": 7365,
      "اتب": 7366,
      "المعا": 7367,
      "الزراعية": 7368,
      "البناء": 7369,
      "ناس": 7370,
      "وأخ": 7371,
      "تصميم": 7372,
      "تعلي": 7373,
      "1980": 7374,
      "الكلاسي": 7375,
      "كيم": 7376,
      "1989": 7377,
      "وتت": 7378,
      "تماما": 7379,
      "حرية": 7380,
      "300": 7381,
      "th": 7382,
      "زيم": 7383,
      "الوحدة": 7384,
      "الفرق": 7385,
      "تجمع": 7386,
      "وجب": 7387,
      "ياز": 7388,
      "وتعتبر": 7389,
      "ولندية": 7390,
      "السبع": 7391,
      "البحرين": 7392,
      "os": 7393,
      "جمات": 7394,
      "ّن": 7395,
      "بلغت": 7396,
      "شح": 7397,
      "علقة": 7398,
      "قوم": 7399,
      "نوبل": 7400,
      "ديدا": 7401,
      "قبر": 7402,
      "سكو": 7403,
      "انتهت": 7404,
      ".»": 7405,
      "جلة": 7406,
      "تشي": 7407,
      "زراعة": 7408,
      "الأسط": 7409,
      "غزة": 7410,
      "التشري": 7411,
      "الخم": 7412,
      "ولوجية": 7413,
      "النز": 7414,
      "استمرت": 7415,
      "كاملة": 7416,
      "55": 7417,
      "الناصر": 7418,
      "المواقع": 7419,
      "كلها": 7420,
      "المحي": 7421,
      "44": 7422,
      "العظمى": 7423,
      "تختلف": 7424,
      "الحاكم": 7425,
      "ثرة": 7426,
      "سيما": 7427,
      "وأيضا": 7428,
      "مقالات": 7429,
      "ثية": 7430,
      "هاجم": 7431,
      "لفترة": 7432,
      "المصادر": 7433,
      "سليم": 7434,
      "ران": 7435,
      "أصحاب": 7436,
      "المكان": 7437,
      "مشار": 7438,
      "وظائف": 7439,
      "الكهربائية": 7440,
      "شاب": 7441,
      "صلة": 7442,
      "الخر": 7443,
      "الإصلاح": 7444,
      "المجاورة": 7445,
      "اتجاه": 7446,
      "السعودي": 7447,
      "التركية": 7448,
      "الفلسفة": 7449,
      "سيمات": 7450,
      "ؤس": 7451,
      "محطة": 7452,
      "السوق": 7453,
      "ولها": 7454,
      "السيد": 7455,
      "الصينية": 7456,
      "بصورة": 7457,
      "القصر": 7458,
      "طير": 7459,
      "شركات": 7460,
      "المنتخب": 7461,
      "وتي": 7462,
      "الخار": 7463,
      "الجزي": 7464,
      "لوس": 7465,
      "تول": 7466,
      "بلدية": 7467,
      "الأندلس": 7468,
      "The": 7469,
      "راك": 7470,
      "قَ": 7471,
      "متها": 7472,
      "الأي": 7473,
      "إعلان": 7474,
      "الخلية": 7475,
      "الأمطار": 7476,
      "الديمقراطي": 7477,
      "للص": 7478,
      "الهجرة": 7479,
      "إله": 7480,
      "دائرة": 7481,
      "يتين": 7482,
      "السوري": 7483,
      "رقام": 7484,
      "نظرا": 7485,
      "يسمح": 7486,
      "لقاء": 7487,
      "اسمها": 7488,
      "القيا": 7489,
      "لور": 7490,
      "زام": 7491,
      "المنظمة": 7492,
      "1945": 7493,
      "أوب": 7494,
      "1970": 7495,
      "باً": 7496,
      "عباس": 7497,
      "قيدة": 7498,
      "طراف": 7499,
      "وقات": 7500,
      "150": 7501,
      "المال": 7502,
      "جيب": 7503,
      "مقارنة": 7504,
      "ديقة": 7505,
      "الحالات": 7506,
      "ساحل": 7507,
      "وهكذا": 7508,
      "الشركات": 7509,
      "التدري": 7510,
      "آي": 7511,
      "تفسير": 7512,
      "البيضاء": 7513,
      "النووية": 7514,
      "ثمانية": 7515,
      "الام": 7516,
      "السلطات": 7517,
      "رسمية": 7518,
      "فَ": 7519,
      "فسهم": 7520,
      "النه": 7521,
      "الحروب": 7522,
      "السبب": 7523,
      "النفس": 7524,
      "قليل": 7525,
      "شط": 7526,
      "لأنها": 7527,
      "سلا": 7528,
      "كك": 7529,
      "ساوي": 7530,
      "بمعنى": 7531,
      "ra": 7532,
      "مستقلة": 7533,
      "الإسبانية": 7534,
      "نمو": 7535,
      "الخمس": 7536,
      "الإسباني": 7537,
      "وخلال": 7538,
      "المسيح": 7539,
      "كاب": 7540,
      "الرجال": 7541,
      "ساعة": 7542,
      "حجر": 7543,
      "الصحية": 7544,
      "خصصة": 7545,
      "المثل": 7546,
      "برج": 7547,
      "دورة": 7548,
      "موز": 7549,
      "بالج": 7550,
      "هوري": 7551,
      "علا": 7552,
      "القسم": 7553,
      "ألعاب": 7554,
      "ملعب": 7555,
      "ولين": 7556,
      "تعريف": 7557,
      "ليبيا": 7558,
      "بقي": 7559,
      "الرياضيات": 7560,
      "اصل": 7561,
      "حتها": 7562,
      "الموافق": 7563,
      "خض": 7564,
      "مؤسسة": 7565,
      "الأربع": 7566,
      "85": 7567,
      "العالي": 7568,
      "فيف": 7569,
      "معهم": 7570,
      "اعية": 7571,
      "المل": 7572,
      "التأثير": 7573,
      "وفا": 7574,
      "أعماله": 7575,
      "زيغ": 7576,
      "الطبقة": 7577,
      "العمليات": 7578,
      "لمات": 7579,
      "بارات": 7580,
      "ميناء": 7581,
      "اتفاقية": 7582,
      "بحسب": 7583,
      "الهيدروجين": 7584,
      "غاز": 7585,
      "عاص": 7586,
      "راس": 7587,
      "دخول": 7588,
      "أنا": 7589,
      "لاحقة": 7590,
      "ويلي": 7591,
      "قرأ": 7592,
      "التسمية": 7593,
      "جامع": 7594,
      "اعتبر": 7595,
      "خيص": 7596,
      "ساد": 7597,
      "يرجع": 7598,
      "ذة": 7599,
      "هودي": 7600,
      "حصاء": 7601,
      "كسية": 7602,
      "البالغ": 7603,
      "الجنسية": 7604,
      "زيارة": 7605,
      "النظرية": 7606,
      "الساعة": 7607,
      "لفية": 7608,
      "ينو": 7609,
      "شرح": 7610,
      "بلدة": 7611,
      "ثالث": 7612,
      "مئوية": 7613,
      "الجغرا": 7614,
      "تض": 7615,
      "وأكثر": 7616,
      "حام": 7617,
      "وأنه": 7618,
      "أغل": 7619,
      "طبيعة": 7620,
      "بعده": 7621,
      "سكي": 7622,
      "بادل": 7623,
      "الرجل": 7624,
      "وريد": 7625,
      "1988": 7626,
      "سائر": 7627,
      "لصالح": 7628,
      "...": 7629,
      "بز": 7630,
      "غور": 7631,
      "2018": 7632,
      "ريس": 7633,
      "الإدارة": 7634,
      "46": 7635,
      "التطور": 7636,
      "وعند": 7637,
      "ولية": 7638,
      "دام": 7639,
      "ثبت": 7640,
      "ديق": 7641,
      "ستانت": 7642,
      "iv": 7643,
      "أنت": 7644,
      "المجموعات": 7645,
      "جارة": 7646,
      "مناخ": 7647,
      "الثقافية": 7648,
      "لديهم": 7649,
      "مناف": 7650,
      "الفعل": 7651,
      "وسام": 7652,
      "قدرة": 7653,
      "de": 7654,
      "دعا": 7655,
      "حمض": 7656,
      "جني": 7657,
      "مبية": 7658,
      "1982": 7659,
      "وكي": 7660,
      "الفرس": 7661,
      "الحيوية": 7662,
      "معل": 7663,
      "أتباع": 7664,
      "ولذلك": 7665,
      "البلا": 7666,
      "المسيحيين": 7667,
      "بالكامل": 7668,
      "تتميز": 7669,
      "تكوين": 7670,
      "بلدان": 7671,
      "رحلة": 7672,
      "ثنائي": 7673,
      "السينما": 7674,
      "واحي": 7675,
      "القتال": 7676,
      "مف": 7677,
      "وعد": 7678,
      "حافظ": 7679,
      "الإله": 7680,
      "95": 7681,
      "op": 7682,
      "مفت": 7683,
      "عضوا": 7684,
      "تعالى": 7685,
      "وأو": 7686,
      "غض": 7687,
      "معين": 7688,
      "الـ": 7689,
      "تهي": 7690,
      "ارض": 7691,
      "والعشرين": 7692,
      "سُ": 7693,
      "كندا": 7694,
      "1986": 7695,
      "خليج": 7696,
      "ديان": 7697,
      "مائة": 7698,
      "علن": 7699,
      "وقيل": 7700,
      "ساحة": 7701,
      "الحمل": 7702,
      "رسميا": 7703,
      "اره": 7704,
      "الحكومية": 7705,
      "غن": 7706,
      "وجيه": 7707,
      "وجدت": 7708,
      "رائب": 7709,
      "الأكسجين": 7710,
      "شرات": 7711,
      "الأطلسي": 7712,
      "واضح": 7713,
      "فارس": 7714,
      "قاطعات": 7715,
      "إثر": 7716,
      "داب": 7717,
      "الصراع": 7718,
      "أصغر": 7719,
      "السط": 7720,
      "كنت": 7721,
      "تاين": 7722,
      "حقي": 7723,
      "بسيطة": 7724,
      "ذكور": 7725,
      "قوية": 7726,
      "المحكمة": 7727,
      "البيزنطي": 7728,
      "بهذه": 7729,
      "وفية": 7730,
      "ائن": 7731,
      "آر": 7732,
      "وعدد": 7733,
      "طنين": 7734,
      "المكسي": 7735,
      "يستطيع": 7736,
      "المكون": 7737,
      "الموض": 7738,
      "قيات": 7739,
      "الغالب": 7740,
      "سمع": 7741,
      "عنصر": 7742,
      "يحي": 7743,
      "الزيت": 7744,
      "بكل": 7745,
      "الحضارة": 7746,
      "الفضاء": 7747,
      "بعنوان": 7748,
      "حرف": 7749,
      "فنون": 7750,
      "الأربعة": 7751,
      "ألة": 7752,
      "رر": 7753,
      "البرتغ": 7754,
      "وبذلك": 7755,
      "لتها": 7756,
      "لأي": 7757,
      "البيئة": 7758,
      "اهتمام": 7759,
      "هائ": 7760,
      "البرية": 7761,
      "يتحدث": 7762,
      "ليكون": 7763,
      "الحاس": 7764,
      "يعتمد": 7765,
      "هول": 7766,
      "هادة": 7767,
      "الرياضي": 7768,
      "للغاية": 7769,
      "المعرفة": 7770,
      "الإصابة": 7771,
      "حلول": 7772,
      "ia": 7773,
      "تسبب": 7774,
      "متحف": 7775,
      "أبطال": 7776,
      "بيان": 7777,
      "أكسيد": 7778,
      "ّى": 7779,
      "ّي": 7780,
      "تصنيف": 7781,
      "إنسان": 7782,
      "الممكن": 7783,
      "اقتصادية": 7784,
      "تحرك": 7785,
      "موجودة": 7786,
      "بطريقة": 7787,
      "ولقد": 7788,
      "منص": 7789,
      "ناط": 7790,
      "الهندسة": 7791,
      "كشف": 7792,
      "تحويل": 7793,
      "لاعبين": 7794,
      "طبيقات": 7795,
      "اجتماعية": 7796,
      "الوضع": 7797,
      "ويض": 7798,
      "الرابعة": 7799,
      "ايت": 7800,
      "الحجر": 7801,
      "للأم": 7802,
      "ئمة": 7803,
      "1979": 7804,
      "97": 7805,
      "1960": 7806,
      "اكتشف": 7807,
      "أراد": 7808,
      "نُ": 7809,
      "الجبال": 7810,
      "النصف": 7811,
      "راتيج": 7812,
      "للدولة": 7813,
      "للمرة": 7814,
      "القديس": 7815,
      "سحاب": 7816,
      "مصطفى": 7817,
      "جهود": 7818,
      "ويش": 7819,
      "ويع": 7820,
      "الذات": 7821,
      "ation": 7822,
      "العرش": 7823,
      "وائز": 7824,
      "العرض": 7825,
      "الطيور": 7826,
      "نيين": 7827,
      "1973": 7828,
      "قواعد": 7829,
      "يلة": 7830,
      "والذ": 7831,
      "والمن": 7832,
      "معرفة": 7833,
      "الاض": 7834,
      "ضمت": 7835,
      "أكد": 7836,
      "الوحيدة": 7837,
      "بُ": 7838,
      "رنامج": 7839,
      "النمو": 7840,
      "تيال": 7841,
      "المستقبل": 7842,
      "لاس": 7843,
      "السفن": 7844,
      "موري": 7845,
      "قليلة": 7846,
      "فلسفة": 7847,
      "42": 7848,
      "الإمارات": 7849,
      "ثات": 7850,
      "الواحد": 7851,
      "وترك": 7852,
      "الأج": 7853,
      "أحيانا": 7854,
      "لفظ": 7855,
      "ويند": 7856,
      "تري": 7857,
      "أض": 7858,
      "واله": 7859,
      "الجماعة": 7860,
      "القائد": 7861,
      "صاب": 7862,
      "بينهما": 7863,
      "طائرة": 7864,
      "خصائص": 7865,
      "أعط": 7866,
      "العلاقة": 7867,
      "طلقت": 7868,
      "انتشر": 7869,
      "العظيم": 7870,
      "بيب": 7871,
      "ul": 7872,
      "ممت": 7873,
      "بلس": 7874,
      "وظيفة": 7875,
      "والأد": 7876,
      "تشرين": 7877,
      "نوات": 7878,
      "الزواج": 7879,
      "أمريكية": 7880,
      "قيا": 7881,
      "زاد": 7882,
      "الناحية": 7883,
      "نائب": 7884,
      "معاد": 7885,
      "ؤه": 7886,
      "الداخلي": 7887,
      "الهجوم": 7888,
      "جدية": 7889,
      "الشتاء": 7890,
      "المشروع": 7891,
      "الخدمات": 7892,
      "يرلندا": 7893,
      "الكائنات": 7894,
      "رُ": 7895,
      "يسية": 7896,
      "كتلة": 7897,
      "الرك": 7898,
      "وكس": 7899,
      "زوجته": 7900,
      "الطبية": 7901,
      "المذهب": 7902,
      "وعا": 7903,
      "تلر": 7904,
      "الدراسة": 7905,
      "الأكادي": 7906,
      "كمال": 7907,
      "خطيط": 7908,
      "ولما": 7909,
      "يضم": 7910,
      "نهائي": 7911,
      "الكم": 7912,
      "كبار": 7913,
      "الأصلية": 7914,
      "وأما": 7915,
      "لديه": 7916,
      "em": 7917,
      "بلوما": 7918,
      "زالت": 7919,
      "والط": 7920,
      "السويس": 7921,
      "1975": 7922,
      "دمة": 7923,
      "نقص": 7924,
      "الهدف": 7925,
      "الأنا": 7926,
      "هِ": 7927,
      "1956": 7928,
      "نائية": 7929,
      "الأثرية": 7930,
      "واحت": 7931,
      "العقل": 7932,
      "وُ": 7933,
      "يبدو": 7934,
      "القضاء": 7935,
      "الإقلي": 7936,
      "المبا": 7937,
      "الفقه": 7938,
      "إطار": 7939,
      "يصبح": 7940,
      "عش": 7941,
      "يقرب": 7942,
      "أفكار": 7943,
      "أولا": 7944,
      "ct": 7945,
      "حلب": 7946,
      "البراز": 7947,
      "الجو": 7948,
      "سما": 7949,
      "الفنية": 7950,
      "كه": 7951,
      "قادة": 7952,
      "صحيفة": 7953,
      "صيد": 7954,
      "رسمي": 7955,
      "أخر": 7956,
      "نشأ": 7957,
      "ذب": 7958,
      "مسؤول": 7959,
      "خال": 7960,
      "بدر": 7961,
      "العمال": 7962,
      "طويل": 7963,
      "ويه": 7964,
      "صاد": 7965,
      "قف": 7966,
      "الأمة": 7967,
      "ناث": 7968,
      "سبعة": 7969,
      "بعدما": 7970,
      "1981": 7971,
      "98": 7972,
      "آخرين": 7973,
      "لافات": 7974,
      "ئك": 7975,
      "حكام": 7976,
      "أولى": 7977,
      "بالص": 7978,
      "برلين": 7979,
      "سطنط": 7980,
      "دقيقة": 7981,
      "نتائج": 7982,
      "مجل": 7983,
      "النجوم": 7984,
      "واستمر": 7985,
      "الهجري": 7986,
      "براء": 7987,
      "سابقا": 7988,
      "واكب": 7989,
      "القدرة": 7990,
      "ut": 7991,
      "ويبلغ": 7992,
      "66": 7993,
      "وغيرهم": 7994,
      "المطل": 7995,
      "1974": 7996,
      "ويوجد": 7997,
      "مدار": 7998,
      "معهد": 7999,
      "طرابات": 8000,
      "العائلة": 8001,
      "وفقًا": 8002,
      "مدرب": 8003,
      "قرى": 8004,
      "المف": 8005,
      "كيميا": 8006,
      "الجنود": 8007,
      "أنظمة": 8008,
      "وجنوب": 8009,
      "لندي": 8010,
      "هاري": 8011,
      "الأمور": 8012,
      "ارتباط": 8013,
      "مستعم": 8014,
      "مدريد": 8015,
      "الشريف": 8016,
      "إمارة": 8017,
      "َة": 8018,
      "أقيم": 8019,
      "كافة": 8020,
      "مقتل": 8021,
      "قرة": 8022,
      "رين": 8023,
      "يرون": 8024,
      "حروب": 8025,
      "الجدول": 8026,
      "حلات": 8027,
      "حفظ": 8028,
      "ومنذ": 8029,
      "بوش": 8030,
      "الأولمبية": 8031,
      "مجمع": 8032,
      "ناطي": 8033,
      "بمث": 8034,
      "الدكتور": 8035,
      "اصطنا": 8036,
      "الشه": 8037,
      "بهدف": 8038,
      "حيات": 8039,
      "بتاريخ": 8040,
      "انتهاء": 8041,
      "القرية": 8042,
      "بدل": 8043,
      "الأحياء": 8044,
      "باستثناء": 8045,
      "الفيروس": 8046,
      "رئيسية": 8047,
      "41": 8048,
      "واخت": 8049,
      "إجمالي": 8050,
      "سيل": 8051,
      "1984": 8052,
      "الشيعة": 8053,
      "شعار": 8054,
      "الخض": 8055,
      "الحرة": 8056,
      "نيس": 8057,
      "ماط": 8058,
      "وعبد": 8059,
      "شخصيات": 8060,
      "رابطة": 8061,
      "وعن": 8062,
      "اليب": 8063,
      "ذار": 8064,
      "الكام": 8065,
      "يريا": 8066,
      "معها": 8067,
      "ربط": 8068,
      "ارد": 8069,
      "تعداد": 8070,
      "أقصى": 8071,
      "شطة": 8072,
      "الشرطة": 8073,
      "مفهوم": 8074,
      "تجاه": 8075,
      "الأسلحة": 8076,
      "المسؤول": 8077,
      "فلما": 8078,
      "الهندية": 8079,
      "أستراليا": 8080,
      "تسم": 8081,
      "الأصلي": 8082,
      "1958": 8083,
      "400": 8084,
      "روح": 8085,
      "النواب": 8086,
      "عمة": 8087,
      "تأثر": 8088,
      "المقدسة": 8089,
      "لذا": 8090,
      "تمتد": 8091,
      "مبنى": 8092,
      "تحالف": 8093,
      "ودا": 8094,
      "الضفة": 8095,
      "المقاومة": 8096,
      "صحيح": 8097,
      "إث": 8098,
      "أندية": 8099,
      "المنت": 8100,
      "ئين": 8101,
      "الزع": 8102,
      "التعاون": 8103,
      "بيه": 8104,
      "بعيد": 8105,
      "النم": 8106,
      "توس": 8107,
      "يدعى": 8108,
      "ويندوز": 8109,
      "يبة": 8110,
      "ناح": 8111,
      "وجة": 8112,
      "الملكة": 8113,
      "2020": 8114,
      "بكثير": 8115,
      "مراكز": 8116,
      "أخيه": 8117,
      "قابلة": 8118,
      "المحيطة": 8119,
      "مبدأ": 8120,
      "وتس": 8121,
      "رسل": 8122,
      "ديات": 8123,
      "حيل": 8124,
      "مدير": 8125,
      "جيد": 8126,
      "1978": 8127,
      "بالله": 8128,
      "العقد": 8129,
      "خسر": 8130,
      "علاج": 8131,
      "اللاعب": 8132,
      "كولوم": 8133,
      "إح": 8134,
      "ميلادي": 8135,
      "حيوانات": 8136,
      "راحة": 8137,
      "يتر": 8138,
      "الثانوية": 8139,
      "البرازيل": 8140,
      "بمدينة": 8141,
      "43": 8142,
      "الفوز": 8143,
      "تتضمن": 8144,
      "معرض": 8145,
      "نجاح": 8146,
      "إيج": 8147,
      "إش": 8148,
      "تطبيق": 8149,
      "الأهلي": 8150,
      "وعلم": 8151,
      "مسلسل": 8152,
      "الخي": 8153,
      "ينيا": 8154,
      "ثمار": 8155,
      "كوي": 8156,
      "كهرب": 8157,
      "الأرجن": 8158,
      "im": 8159,
      "96": 8160,
      "الإغريق": 8161,
      "أز": 8162,
      "أجهزة": 8163,
      "نفوذ": 8164,
      "العباسي": 8165,
      "الفنان": 8166,
      "وسيلة": 8167,
      "بالب": 8168,
      "السيارات": 8169,
      "طراب": 8170,
      "التل": 8171,
      "فى": 8172,
      "1985": 8173,
      "كَ": 8174,
      "والمع": 8175,
      "بعضهم": 8176,
      "بشأن": 8177,
      "الذهبي": 8178,
      "بمثابة": 8179,
      "وتعد": 8180,
      "وقة": 8181,
      "الروح": 8182,
      "الصوم": 8183,
      "الآخرين": 8184,
      "المركزي": 8185,
      "هوية": 8186,
      "دف": 8187,
      "تقرير": 8188,
      "اليابانية": 8189,
      "ونتيجة": 8190,
      "أنفسهم": 8191,
      "جرت": 8192,
      "غانستان": 8193,
      "النقد": 8194,
      "الشعوب": 8195,
      "ربيع": 8196,
      "فعال": 8197,
      "ورت": 8198,
      "النسب": 8199,
      "برش": 8200,
      "جعفر": 8201,
      "ترجم": 8202,
      "تدل": 8203,
      "القول": 8204,
      "لتش": 8205,
      "حضر": 8206,
      "مواد": 8207,
      "وبيا": 8208,
      "الفيزياء": 8209,
      "مالي": 8210,
      "أغنية": 8211,
      "وأخذ": 8212,
      "وذكر": 8213,
      "منش": 8214,
      "عقب": 8215,
      "الفرا": 8216,
      "يتان": 8217,
      "الطعام": 8218,
      "الحمراء": 8219,
      "اعتمد": 8220,
      "دخلت": 8221,
      "1968": 8222,
      "رمز": 8223,
      "يسى": 8224,
      "الحادي": 8225,
      "الشاعر": 8226,
      "ائعة": 8227,
      "المستخدم": 8228,
      "الصيد": 8229,
      "كانون": 8230,
      "الانتق": 8231,
      "وتحت": 8232,
      "شديد": 8233,
      "76": 8234,
      "والمنا": 8235,
      "مكتب": 8236,
      "بنا": 8237,
      "الإنسانية": 8238,
      "رأي": 8239,
      "فاست": 8240,
      "المهمة": 8241,
      "المفت": 8242,
      "المساحة": 8243,
      "أشار": 8244,
      "الإعلام": 8245,
      "فكانت": 8246,
      "1962": 8247,
      "الصحة": 8248,
      "الاستخدام": 8249,
      "راقبة": 8250,
      "حماية": 8251,
      "ترف": 8252,
      "مثيل": 8253,
      "عموما": 8254,
      "مؤسس": 8255,
      "مجد": 8256,
      "58": 8257,
      "فشل": 8258,
      "سوم": 8259,
      "وعين": 8260,
      "وبدأ": 8261,
      "هتلر": 8262,
      "دولية": 8263,
      "تشارد": 8264,
      "الرواية": 8265,
      "زالة": 8266,
      "الحية": 8267,
      "البشري": 8268,
      "القومية": 8269,
      "بوس": 8270,
      "الخارجي": 8271,
      "الحين": 8272,
      "بالرغم": 8273,
      "ماث": 8274,
      "1983": 8275,
      "رمضان": 8276,
      "يمر": 8277,
      "تنتج": 8278,
      "لفزيون": 8279,
      "ائب": 8280,
      "رفين": 8281,
      "لش": 8282,
      "لونة": 8283,
      "الأرضية": 8284,
      "يرو": 8285,
      "القاعدة": 8286,
      "ag": 8287,
      "ديمقرا": 8288,
      "تحكم": 8289,
      "المستخدمة": 8290,
      "نَ": 8291,
      "كمل": 8292,
      "البرنامج": 8293,
      "القوانين": 8294,
      "وزع": 8295,
      "1971": 8296,
      "ir": 8297,
      "القيادة": 8298,
      "يلعب": 8299,
      "مقالة": 8300,
      "1976": 8301,
      "سكن": 8302,
      "الحقوق": 8303,
      "حينها": 8304,
      "ريين": 8305,
      "مترا": 8306,
      "ثان": 8307,
      "رنسا": 8308,
      "الكنائس": 8309,
      "السير": 8310,
      "السما": 8311,
      "قديمة": 8312,
      "أيدي": 8313,
      "البصرة": 8314,
      "ist": 8315,
      "المؤسسات": 8316,
      "خطة": 8317,
      "أسباب": 8318,
      "الغلاف": 8319,
      "تسجيل": 8320,
      "كنولوجيا": 8321,
      "مجيات": 8322,
      "إقامة": 8323,
      "لمن": 8324,
      "عتها": 8325,
      "مقاومة": 8326,
      "انوني": 8327,
      "رشيد": 8328,
      "مذ": 8329,
      "الذاتي": 8330,
      "الإدارية": 8331,
      "رؤساء": 8332,
      "توزيع": 8333,
      "رفي": 8334,
      "ّد": 8335,
      "التراث": 8336,
      "عمه": 8337,
      "الصحابة": 8338,
      "النهضة": 8339,
      "ينتج": 8340,
      "الكث": 8341,
      "سيج": 8342,
      "اصرة": 8343,
      "فجار": 8344,
      "المدنية": 8345,
      "ليت": 8346,
      "الأولية": 8347,
      "ممثلة": 8348,
      "يبدأ": 8349,
      "ناطيسي": 8350,
      "أين": 8351,
      "الديني": 8352,
      "خا": 8353,
      "ادرة": 8354,
      "ئت": 8355,
      "ضى": 8356,
      "تحوي": 8357,
      "1987": 8358,
      "كميات": 8359,
      "أبيه": 8360,
      "ويف": 8361,
      "بوجود": 8362,
      "مرار": 8363,
      "يلاء": 8364,
      "تمثيل": 8365,
      "وإذا": 8366,
      "متنوعة": 8367,
      "ملاحظ": 8368,
      "قيه": 8369,
      "لاه": 8370,
      "آخرون": 8371,
      "الحاسوب": 8372,
      "انتصار": 8373,
      "الحديدية": 8374,
      "الخدمة": 8375,
      "طباء": 8376,
      "خروج": 8377,
      "الإخوان": 8378,
      "1964": 8379,
      "مها": 8380,
      "علاقات": 8381,
      "رؤية": 8382,
      "تؤدي": 8383,
      "الدقيقة": 8384,
      "المشار": 8385,
      "1961": 8386,
      "السياحة": 8387,
      "1972": 8388,
      "فاوضات": 8389,
      "الجبهة": 8390,
      "تشارلز": 8391,
      "وارع": 8392,
      "تار": 8393,
      "زف": 8394,
      "يحيى": 8395,
      "لبة": 8396,
      "تمرد": 8397,
      "هزيمة": 8398,
      "روبرت": 8399,
      "إلكتر": 8400,
      "سطنطينية": 8401,
      "الاكت": 8402,
      "البيزنطية": 8403,
      "ندق": 8404,
      "خرية": 8405,
      "77": 8406,
      "منز": 8407,
      "يْ": 8408,
      "فورنيا": 8409,
      "يقت": 8410,
      "المصطلح": 8411,
      "الخطاب": 8412,
      "أنشأ": 8413,
      "أبا": 8414,
      "انيوم": 8415,
      "الفنون": 8416,
      "الإجمالي": 8417,
      "أمن": 8418,
      "دوم": 8419,
      "قوب": 8420,
      "معروفة": 8421,
      "التهاب": 8422,
      "الكلية": 8423,
      "88": 8424,
      "ترجمة": 8425,
      "اتخذ": 8426,
      "تصبح": 8427,
      "الدعوة": 8428,
      "فمن": 8429,
      "اعتقاد": 8430,
      "مستشفى": 8431,
      "نشأت": 8432,
      "وبلغ": 8433,
      "وأول": 8434,
      "الآسي": 8435,
      "تعيش": 8436,
      "قمة": 8437,
      "وجعل": 8438,
      "اتل": 8439,
      "ers": 8440,
      "ظاهرة": 8441,
      "سلالة": 8442,
      "يختلف": 8443,
      "قتال": 8444,
      "منزل": 8445,
      "تناول": 8446,
      "أطول": 8447,
      "المؤمن": 8448,
      "احتم": 8449,
      "لغاء": 8450,
      "كمت": 8451,
      "جنود": 8452,
      "راج": 8453,
      "بطرس": 8454,
      "وائف": 8455,
      "عهده": 8456,
      "الفا": 8457,
      "أسلوب": 8458,
      "زات": 8459,
      "قاعد": 8460,
      "حدثت": 8461,
      "ومست": 8462,
      "لاند": 8463,
      "وكا": 8464,
      "سطنبول": 8465,
      "باكستان": 8466,
      "محافظ": 8467,
      "كاة": 8468,
      "الأردنية": 8469,
      "حظ": 8470,
      "قايا": 8471,
      "عاً": 8472,
      "أهولة": 8473,
      "مكتبة": 8474,
      "الحجم": 8475,
      "زعيم": 8476,
      "يأتي": 8477,
      "تأسي": 8478,
      "القطاع": 8479,
      "خام": 8480,
      "قس": 8481,
      "الفتح": 8482,
      "المصاب": 8483,
      "مقت": 8484,
      "وهما": 8485,
      "قدمت": 8486,
      "الكيمياء": 8487,
      "الكتلة": 8488,
      "ئذ": 8489,
      "سيدي": 8490,
      "السوي": 8491,
      "طون": 8492,
      "قوانين": 8493,
      "إض": 8494,
      "اللبنانية": 8495,
      "700": 8496,
      "ديه": 8497,
      "العضوية": 8498,
      "انها": 8499,
      "كلفة": 8500,
      "ابية": 8501,
      "قوي": 8502,
      "باعة": 8503,
      "الصغير": 8504,
      "وتمت": 8505,
      "توما": 8506,
      "ماج": 8507,
      "قضية": 8508,
      "og": 8509,
      "انخفاض": 8510,
      "شو": 8511,
      "ويعد": 8512,
      "يوما": 8513,
      "الشعبي": 8514,
      "المهاجر": 8515,
      "تجارة": 8516,
      "قنا": 8517,
      "تربون": 8518,
      "سلمين": 8519,
      "الغذائية": 8520,
      "تعليم": 8521,
      "العن": 8522,
      "بًا": 8523,
      "الجلد": 8524,
      "الأفلام": 8525,
      "1977": 8526,
      "1963": 8527,
      "وسوفت": 8528,
      "قيل": 8529,
      "روابط": 8530,
      "هتمام": 8531,
      "وكب": 8532,
      "قين": 8533,
      "كسر": 8534,
      "رأى": 8535,
      "فيس": 8536,
      "أولئك": 8537,
      "المنزل": 8538,
      "كروسوفت": 8539,
      "عربي": 8540,
      "ريتشارد": 8541,
      "وعدم": 8542,
      "المحافظ": 8543,
      "المشر": 8544,
      "هندسة": 8545,
      "1969": 8546,
      "ودور": 8547,
      "اللقب": 8548,
      "عه": 8549,
      "بغي": 8550,
      "كوريا": 8551,
      "الأذ": 8552,
      "الصلاة": 8553,
      "ويكون": 8554,
      "الرأي": 8555,
      "درالية": 8556,
      "المزيد": 8557,
      "توفر": 8558,
      "الثقافي": 8559,
      "وقتل": 8560,
      "الطيران": 8561,
      "بحوالي": 8562,
      "دستور": 8563,
      "مسافة": 8564,
      "القومي": 8565,
      "نساء": 8566,
      "مغتربون": 8567,
      "حصلت": 8568,
      "غون": 8569,
      "القناة": 8570,
      "أسط": 8571,
      "ريال": 8572,
      "الطائرة": 8573,
      "ot": 8574,
      "المسر": 8575,
      "موجود": 8576,
      "أكيد": 8577,
      "الاشتراكية": 8578,
      "بريد": 8579,
      "أوس": 8580,
      "سيف": 8581,
      "المنش": 8582,
      "العمارة": 8583,
      "بحرية": 8584,
      "الأساس": 8585,
      "بيانات": 8586,
      "تشغيل": 8587,
      "ويليام": 8588,
      "الدماغ": 8589,
      "يريد": 8590,
      "جابة": 8591,
      "كريست": 8592,
      "سبع": 8593,
      "للحصول": 8594,
      "الكلمات": 8595,
      "لـ": 8596,
      "التعلي": 8597,
      "شاهد": 8598,
      "لبعض": 8599,
      "والبر": 8600,
      "وثلاث": 8601,
      "سقط": 8602,
      "ثماني": 8603,
      "البنية": 8604,
      "الصباح": 8605,
      "افتتاح": 8606,
      "النخ": 8607,
      "ناق": 8608,
      "ائح": 8609,
      "الشهر": 8610,
      "قتها": 8611,
      "الصيني": 8612,
      "معنى": 8613,
      "كاليفورنيا": 8614,
      "وحنا": 8615,
      "سفر": 8616,
      "ومح": 8617,
      "مكن": 8618,
      "َّى": 8619,
      "وتوفي": 8620,
      "بته": 8621,
      "الرابطة": 8622,
      "طبة": 8623,
      "ترتيب": 8624,
      "احتلال": 8625,
      "العالية": 8626,
      "تاريخية": 8627,
      "يسيا": 8628,
      "امتدت": 8629,
      "المتعلقة": 8630,
      "عثر": 8631,
      "اليك": 8632,
      "برغ": 8633,
      "تدمير": 8634,
      "أفغانستان": 8635,
      "الجامعات": 8636,
      "الميت": 8637,
      "الأرمن": 8638,
      "النصوص": 8639,
      "قرون": 8640,
      "مجة": 8641,
      "اليين": 8642,
      "رسوم": 8643,
      "غري": 8644,
      "التفاعل": 8645,
      "1965": 8646,
      "نيع": 8647,
      "الطلاب": 8648,
      "مفا": 8649,
      "ربي": 8650,
      "إنجاز": 8651,
      "عدل": 8652,
      "البرامج": 8653,
      "الإيرانية": 8654,
      "القيام": 8655,
      "سارة": 8656,
      "وفرة": 8657,
      "شعراء": 8658,
      "براطوري": 8659,
      "تسع": 8660,
      "كونه": 8661,
      "محددة": 8662,
      "الفت": 8663,
      "اثنين": 8664,
      "شنطن": 8665,
      "1950": 8666,
      "امه": 8667,
      "كولا": 8668,
      "رائية": 8669,
      "الحاد": 8670,
      "أهمها": 8671,
      "St": 8672,
      "انغ": 8673,
      "1920": 8674,
      "تتراوح": 8675,
      "78": 8676,
      "خلفه": 8677,
      "لفات": 8678,
      "مسير": 8679,
      "داء": 8680,
      "منتج": 8681,
      "هيدر": 8682,
      "كونها": 8683,
      "وزن": 8684,
      "القرار": 8685,
      "الصور": 8686,
      "أقرب": 8687,
      "ليوم": 8688,
      "هجوم": 8689,
      "دليل": 8690,
      "الظروف": 8691,
      "قاق": 8692,
      "يتبع": 8693,
      "ًّا": 8694,
      "ابقة": 8695,
      "أعظم": 8696,
      "سَ": 8697,
      "يقدم": 8698,
      "تير": 8699,
      "بموجب": 8700,
      "رها": 8701,
      "وتشمل": 8702,
      "الطائرات": 8703,
      "القسطنطينية": 8704,
      "البوس": 8705,
      "القائمة": 8706,
      "هري": 8707,
      "معاوية": 8708,
      "الأرثوذكسية": 8709,
      "عددا": 8710,
      "أولاد": 8711,
      "وزي": 8712,
      "حفل": 8713,
      "شاعر": 8714,
      "حُ": 8715,
      "شتاين": 8716,
      "تراك": 8717,
      "حته": 8718,
      "التد": 8719,
      "قاليد": 8720,
      "المركبات": 8721,
      "قياس": 8722,
      "=\"": 8723,
      "للمدينة": 8724,
      "رز": 8725,
      "ليه": 8726,
      "الحفاظ": 8727,
      "المسرح": 8728,
      "امتداد": 8729,
      "نظمة": 8730,
      "دائما": 8731,
      "يدخل": 8732,
      "الرؤ": 8733,
      "وانته": 8734,
      "فروع": 8735,
      "دراسات": 8736,
      "وكر": 8737,
      "غربي": 8738,
      "حَ": 8739,
      "الشبكة": 8740,
      "الشخصيات": 8741,
      "الأفراد": 8742,
      "ندوق": 8743,
      "المصدر": 8744,
      "استقلال": 8745,
      "سيب": 8746,
      "92": 8747,
      "الغابات": 8748,
      "طبيعية": 8749,
      "الليل": 8750,
      "ديلات": 8751,
      "الأسلوب": 8752,
      "العودة": 8753,
      "NA": 8754,
      "الهندي": 8755,
      "الجنرال": 8756,
      "الحجاز": 8757,
      "درج": 8758,
      "مستويات": 8759,
      "خاذ": 8760,
      "المستعم": 8761,
      "التيار": 8762,
      "وسل": 8763,
      "الأحزاب": 8764,
      "وضعت": 8765,
      "للبلاد": 8766,
      "فضلا": 8767,
      "واشنطن": 8768,
      "شكلت": 8769,
      "والآ": 8770,
      "غول": 8771,
      "ابنة": 8772,
      "ربيج": 8773,
      "الْ": 8774,
      "ذية": 8775,
      "بنتيجة": 8776,
      "احتلت": 8777,
      "وازن": 8778,
      "وإنما": 8779,
      "1966": 8780,
      "نائي": 8781,
      "الغزو": 8782,
      "ممن": 8783,
      "ومان": 8784,
      "سحب": 8785,
      "1949": 8786,
      "قائق": 8787,
      "الاتصال": 8788,
      "منق": 8789,
      "جندي": 8790,
      "الدورة": 8791,
      "الاقت": 8792,
      "غيرات": 8793,
      "الخطوط": 8794,
      "68": 8795,
      "الإشارة": 8796,
      "امرأة": 8797,
      "عيسى": 8798,
      "الصناعة": 8799,
      "القيمة": 8800,
      "البرا": 8801,
      "عطاء": 8802,
      "اليات": 8803,
      "حصار": 8804,
      "تدعى": 8805,
      "هيد": 8806,
      "راتيجية": 8807,
      "دينية": 8808,
      "شغل": 8809,
      "الدار": 8810,
      "استخدمت": 8811,
      "القرى": 8812,
      "الجمهوري": 8813,
      "إصلاح": 8814,
      "ريخ": 8815,
      "الاتجاه": 8816,
      "1947": 8817,
      "الاجتماع": 8818,
      "التحكم": 8819,
      "للط": 8820,
      "فرنسية": 8821,
      "شمالا": 8822,
      "نك": 8823,
      "انس": 8824,
      "بيئة": 8825,
      "ورو": 8826,
      "حوض": 8827,
      "الدعم": 8828,
      "اتفاق": 8829,
      "الصهي": 8830,
      "تأسيسات": 8831,
      "طائرات": 8832,
      "عادل": 8833,
      "مهرجان": 8834,
      "حديد": 8835,
      "غزو": 8836,
      "يحصل": 8837,
      "العثور": 8838,
      "الملعب": 8839,
      "ئيا": 8840,
      "الفرع": 8841,
      "هولة": 8842,
      "فقه": 8843,
      "يقارب": 8844,
      "الشريعة": 8845,
      "اعتماد": 8846,
      "البروتستانت": 8847,
      "صع": 8848,
      "الهد": 8849,
      "إف": 8850,
      "اعد": 8851,
      "مجرد": 8852,
      "ّه": 8853,
      "السماء": 8854,
      "السامية": 8855,
      "الحرية": 8856,
      "ضوء": 8857,
      "وضة": 8858,
      "المائية": 8859,
      "الفيزيا": 8860,
      "ابيع": 8861,
      "تجارية": 8862,
      "وسلم": 8863,
      "الشهيرة": 8864,
      "الضر": 8865,
      "ورئيس": 8866,
      "تحسين": 8867,
      "تنام": 8868,
      "ويون": 8869,
      "oc": 8870,
      "ضخم": 8871,
      "الحقيقة": 8872,
      "الكلاسيكية": 8873,
      "المؤرخين": 8874,
      "الصد": 8875,
      "غام": 8876,
      "ليصبح": 8877,
      "شعاع": 8878,
      "جلات": 8879,
      "الهاد": 8880,
      "غييرات": 8881,
      "مرتين": 8882,
      "إخ": 8883,
      "التجاري": 8884,
      "مراحل": 8885,
      "نظم": 8886,
      "المشاركة": 8887,
      "سابقة": 8888,
      "القرون": 8889,
      "الدن": 8890,
      "رتبة": 8891,
      "الهيئة": 8892,
      "جوان": 8893,
      "ألك": 8894,
      "شديدة": 8895,
      "المجمع": 8896,
      "الصناعات": 8897,
      "إمكانية": 8898,
      "يخت": 8899,
      "التحالف": 8900,
      "ظلت": 8901,
      "العُ": 8902,
      "ديين": 8903,
      "وتست": 8904,
      "الهولندية": 8905,
      "وسيع": 8906,
      "تضمن": 8907,
      "الرائ": 8908,
      "حرة": 8909,
      "ويب": 8910,
      "الحاض": 8911,
      "عظم": 8912,
      "الرياح": 8913,
      "ستون": 8914,
      "قصص": 8915,
      "67": 8916,
      "تقول": 8917,
      "ميلاد": 8918,
      "التنفيذ": 8919,
      "البوا": 8920,
      "حكمه": 8921,
      "الابتد": 8922,
      "يناء": 8923,
      "ذرة": 8924,
      "استعمال": 8925,
      "يقدر": 8926,
      "وتكون": 8927,
      "أرب": 8928,
      "رو": 8929,
      "الجهة": 8930,
      "كاثر": 8931,
      "سلوك": 8932,
      "لمس": 8933,
      "ميش": 8934,
      "الطرف": 8935,
      "جول": 8936,
      "سبات": 8937,
      "الزا": 8938,
      "المكسيك": 8939,
      "الإطلاق": 8940,
      "إمام": 8941,
      "ذج": 8942,
      "الثمان": 8943,
      "القرنين": 8944,
      "الوجود": 8945,
      "السوفيتية": 8946,
      "الأشجار": 8947,
      "تنوع": 8948,
      "تاد": 8949,
      "تولي": 8950,
      "النت": 8951,
      "الذكور": 8952,
      "ديون": 8953,
      "صفات": 8954,
      "ووضع": 8955,
      "64": 8956,
      "صفوف": 8957,
      "المعارضة": 8958,
      "عو": 8959,
      "المب": 8960,
      "يسوع": 8961,
      "الوطن": 8962,
      "الحقيقي": 8963,
      "ناول": 8964,
      "عامًا": 8965,
      "مدارس": 8966,
      "سنويا": 8967,
      "ابد": 8968,
      "الرأس": 8969,
      "التنظيم": 8970,
      "لمانية": 8971,
      "الاستعمار": 8972,
      "أكادي": 8973,
      "جُ": 8974,
      "1952": 8975,
      "الشاف": 8976,
      "وفد": 8977,
      "بوت": 8978,
      "زد": 8979,
      "المشتركة": 8980,
      "هج": 8981,
      "ّم": 8982,
      "شات": 8983,
      "العذ": 8984,
      "ونظ": 8985,
      "عمق": 8986,
      "In": 8987,
      "خز": 8988,
      "ديز": 8989,
      "إسلامية": 8990,
      "شين": 8991,
      "الآش": 8992,
      "كلمات": 8993,
      "ورغم": 8994,
      "السلاح": 8995,
      "القلعة": 8996,
      "جاءت": 8997,
      "مقابلة": 8998,
      "العاشر": 8999,
      "البكت": 9000,
      "روز": 9001,
      "المنورة": 9002,
      "النجم": 9003,
      "التوالي": 9004,
      "السائد": 9005,
      "اختلاف": 9006,
      "هران": 9007,
      "خاض": 9008,
      "يطان": 9009,
      "روايات": 9010,
      "غرافية": 9011,
      "بقاء": 9012,
      "دات": 9013,
      "مشكلة": 9014,
      "وجل": 9015,
      "العثمانيين": 9016,
      "1000": 9017,
      "الكاري": 9018,
      "الفور": 9019,
      "تحليل": 9020,
      "راه": 9021,
      "فاس": 9022,
      "عون": 9023,
      "الوليد": 9024,
      "فذ": 9025,
      "مساعد": 9026,
      "طرد": 9027,
      "الأكاديمية": 9028,
      "طرة": 9029,
      "الشهير": 9030,
      "البحري": 9031,
      "صلى": 9032,
      "يوحنا": 9033,
      "الفاط": 9034,
      "مناسبة": 9035,
      "النصر": 9036,
      "سرية": 9037,
      "1946": 9038,
      "النهائية": 9039,
      "الأصليين": 9040,
      "موضوع": 9041,
      "ائة": 9042,
      "طلحات": 9043,
      "أمل": 9044,
      "ديلا": 9045,
      "تقنية": 9046,
      "الإيمان": 9047,
      "التحق": 9048,
      "غالبية": 9049,
      "عبيد": 9050,
      "غيرها": 9051,
      "نيل": 9052,
      "أيرلندا": 9053,
      "الإقليم": 9054,
      "الشيوخ": 9055,
      "ويقول": 9056,
      "تفاعل": 9057,
      "تطورت": 9058,
      "مهما": 9059,
      "140": 9060,
      "الأفريقية": 9061,
      "الهولندي": 9062,
      "1954": 9063,
      "اقترح": 9064,
      "الأماكن": 9065,
      "الأسنان": 9066,
      "فإذا": 9067,
      "نجم": 9068,
      "ورغ": 9069,
      "معبد": 9070,
      "ضبة": 9071,
      "لتا": 9072,
      "الدموية": 9073,
      "تلقى": 9074,
      "ؤها": 9075,
      "ضيف": 9076,
      "إدوارد": 9077,
      "زوجة": 9078,
      "ارته": 9079,
      "صيف": 9080,
      "فإنها": 9081,
      "توجه": 9082,
      "وتها": 9083,
      "السلسلة": 9084,
      "العوامل": 9085,
      "واهر": 9086,
      "وأبو": 9087,
      "الزبير": 9088,
      "النروي": 9089,
      "آلة": 9090,
      "إيه": 9091,
      "نجا": 9092,
      "إسحاق": 9093,
      "أمراض": 9094,
      "الرابط": 9095,
      "نسبيا": 9096,
      "لتكون": 9097,
      "كله": 9098,
      "شارات": 9099,
      "الأسماك": 9100,
      "الشيوعي": 9101,
      "الإث": 9102,
      "قبال": 9103,
      "السكر": 9104,
      "فترات": 9105,
      "استقر": 9106,
      "اردو": 9107,
      "1918": 9108,
      "فاً": 9109,
      "إسطنبول": 9110,
      "الجذ": 9111,
      "التسع": 9112,
      "الإست": 9113,
      "لر": 9114,
      "إليهم": 9115,
      "مرتف": 9116,
      "دائم": 9117,
      "نابليون": 9118,
      "بولندا": 9119,
      "كسون": 9120,
      "برشلونة": 9121,
      "120": 9122,
      "الروسي": 9123,
      "ويسرا": 9124,
      "الصليبية": 9125,
      "التم": 9126,
      "ئاب": 9127,
      "ماذج": 9128,
      "شروط": 9129,
      "بشدة": 9130,
      "1939": 9131,
      "بالفعل": 9132,
      "أغلبية": 9133,
      "راي": 9134,
      "تدفق": 9135,
      "ولياني": 9136,
      "الأموال": 9137,
      "ri": 9138,
      "وعمل": 9139,
      "المصريين": 9140,
      "تاريخها": 9141,
      "الحيوان": 9142,
      "أساسا": 9143,
      "تنقسم": 9144,
      "شؤون": 9145,
      "النور": 9146,
      "راعات": 9147,
      "الحلفاء": 9148,
      "الأخضر": 9149,
      "تركي": 9150,
      "1957": 9151,
      "خين": 9152,
      "فهر": 9153,
      "موسيقى": 9154,
      "حلف": 9155,
      "وائر": 9156,
      "السويد": 9157,
      "نون": 9158,
      "وطنية": 9159,
      "رى": 9160,
      "الأيام": 9161,
      "الدست": 9162,
      "كثافة": 9163,
      "انتقال": 9164,
      "ديب": 9165,
      "أقام": 9166,
      "الجنسي": 9167,
      "600": 9168,
      "تالية": 9169,
      "هنة": 9170,
      "وقبل": 9171,
      "الشمسية": 9172,
      "تتمتع": 9173,
      "فيين": 9174,
      "منهما": 9175,
      "وشي": 9176,
      "ab": 9177,
      "فاضة": 9178,
      "الأجنبية": 9179,
      "فورد": 9180,
      "واضحة": 9181,
      "وتون": 9182,
      "بنفسه": 9183,
      "الفارسية": 9184,
      "سيوم": 9185,
      "ّات": 9186,
      "اريس": 9187,
      "لتحقيق": 9188,
      "مسب": 9189,
      "الوها": 9190,
      "أرد": 9191,
      "المهند": 9192,
      "العر": 9193,
      "قدمة": 9194,
      "تبقى": 9195,
      "شهادة": 9196,
      "ديس": 9197,
      "ساعات": 9198,
      "سيق": 9199,
      "الرشيد": 9200,
      "ناز": 9201,
      "الثدي": 9202,
      "خبر": 9203,
      "وتُ": 9204,
      "يقال": 9205,
      "الضرائب": 9206,
      "الأدوية": 9207,
      "قوى": 9208,
      "فز": 9209,
      "اتف": 9210,
      "استقل": 9211,
      "1955": 9212,
      "وجاء": 9213,
      "الرقم": 9214,
      "الرياضة": 9215,
      "جريدة": 9216,
      "أعد": 9217,
      "od": 9218,
      "ماض": 9219,
      "مجالات": 9220,
      "أغراض": 9221,
      "لص": 9222,
      "مِن": 9223,
      "مايكروسوفت": 9224,
      "العاص": 9225,
      "نغ": 9226,
      "تهر": 9227,
      "شهرة": 9228,
      "مأهولة": 9229,
      "الصخور": 9230,
      "الكوي": 9231,
      "الأسماء": 9232,
      "الموسيقية": 9233,
      "قصير": 9234,
      "التحليل": 9235,
      "الذهبية": 9236,
      "لنا": 9237,
      "آت": 9238,
      "للعمل": 9239,
      "فتاء": 9240,
      "تحقق": 9241,
      "يشمل": 9242,
      "قالت": 9243,
      "قطعة": 9244,
      "واريخ": 9245,
      "اليولياني": 9246,
      "وفرنسا": 9247,
      "إع": 9248,
      "ذاته": 9249,
      "تصوير": 9250,
      "عراقي": 9251,
      "البرتغال": 9252,
      "الألمان": 9253,
      "إكس": 9254,
      "غرق": 9255,
      "السام": 9256,
      "المجتمعات": 9257,
      "إشارة": 9258,
      "ومؤ": 9259,
      "النواة": 9260,
      "المغول": 9261,
      "ضخمة": 9262,
      "فصلة": 9263,
      "الحج": 9264,
      "توماس": 9265,
      "الاشتراكي": 9266,
      "مؤقت": 9267,
      "وظيف": 9268,
      "بوص": 9269,
      "ثى": 9270,
      "مى": 9271,
      "يتميز": 9272,
      "المغربية": 9273,
      "البيض": 9274,
      "يساعد": 9275,
      "والمست": 9276,
      "إغ": 9277,
      "عظ": 9278,
      "حقيقة": 9279,
      "الاع": 9280,
      "ضمان": 9281,
      "رفت": 9282,
      "ابهة": 9283,
      "لمح": 9284,
      "الدنيا": 9285,
      "وسيقى": 9286,
      "شعوب": 9287,
      "الموجود": 9288,
      "مباشر": 9289,
      "يعقوب": 9290,
      "1941": 9291,
      "تاز": 9292,
      "قاسم": 9293,
      "ادم": 9294,
      "سهل": 9295,
      "ألا": 9296,
      "فيكت": 9297,
      "بريت": 9298,
      "جيا": 9299,
      "يدل": 9300,
      "الحب": 9301,
      "وربما": 9302,
      "يده": 9303,
      "لسوف": 9304,
      "ائز": 9305,
      "جريت": 9306,
      "فش": 9307,
      "عارض": 9308,
      "ورن": 9309,
      "اجتماع": 9310,
      "أعلام": 9311,
      "مسيحي": 9312,
      "توحيد": 9313,
      "ومت": 9314,
      "الأزهر": 9315,
      "ضاب": 9316,
      "57": 9317,
      "البخ": 9318,
      "كنة": 9319,
      "ثقافية": 9320,
      "أسيس": 9321,
      "عادت": 9322,
      "ومركز": 9323,
      "خطاب": 9324,
      "للي": 9325,
      "صول": 9326,
      "مرد": 9327,
      "صباح": 9328,
      "التصوير": 9329,
      "مروان": 9330,
      "أمه": 9331,
      "غادر": 9332,
      "سيت": 9333,
      "محكمة": 9334,
      "ترى": 9335,
      "الربيع": 9336,
      "الورا": 9337,
      "1953": 9338,
      "المماليك": 9339,
      "جوزيف": 9340,
      "كاث": 9341,
      "قوله": 9342,
      "الكي": 9343,
      "المتن": 9344,
      "وائي": 9345,
      "اقتصادي": 9346,
      "فلاسفة": 9347,
      "سود": 9348,
      "ter": 9349,
      "ألي": 9350,
      "الصالح": 9351,
      "الجنس": 9352,
      "درسة": 9353,
      "ومحمد": 9354,
      "طرح": 9355,
      "موقف": 9356,
      "فيليب": 9357,
      "وريون": 9358,
      "المعادن": 9359,
      "طبقات": 9360,
      "سيكون": 9361,
      "اللاعبين": 9362,
      "العباسية": 9363,
      "الأث": 9364,
      "يملك": 9365,
      "الآر": 9366,
      "أحدث": 9367,
      "ترتبط": 9368,
      "اليوناني": 9369,
      "بكات": 9370,
      "دَ": 9371,
      "النسبة": 9372,
      "سنتي": 9373,
      "ناية": 9374,
      "قم": 9375,
      "ينت": 9376,
      "الأفكار": 9377,
      "ولت": 9378,
      "القض": 9379,
      "لإنتاج": 9380,
      "%.": 9381,
      "160": 9382,
      "الفلا": 9383,
      "قاذ": 9384,
      "النسخة": 9385,
      "بالمدينة": 9386,
      "يتا": 9387,
      "الأعداد": 9388,
      "الأقصى": 9389,
      "الملوك": 9390,
      "الأسد": 9391,
      "أكس": 9392,
      "التعبير": 9393,
      "أخت": 9394,
      "مساحتها": 9395,
      "المباني": 9396,
      "وفاز": 9397,
      "فاعلات": 9398,
      "الأشياء": 9399,
      "عالمية": 9400,
      "ونشر": 9401,
      "البري": 9402,
      "جنس": 9403,
      "الجمعة": 9404,
      "ناطيسية": 9405,
      "فئة": 9406,
      "93": 9407,
      "النحو": 9408,
      "عملت": 9409,
      "الممثل": 9410,
      "النطاق": 9411,
      "وشمال": 9412,
      "العش": 9413,
      "مشاكل": 9414,
      "غلب": 9415,
      "أسم": 9416,
      "نشرت": 9417,
      "وسطة": 9418,
      "1936": 9419,
      "التاريخي": 9420,
      "te": 9421,
      "الصدر": 9422,
      "أحا": 9423,
      "درب": 9424,
      "فيفة": 9425,
      "تداب": 9426,
      "تسمح": 9427,
      "سلاح": 9428,
      "ويعتقد": 9429,
      "بيون": 9430,
      "عوامل": 9431,
      "وحصل": 9432,
      "86": 9433,
      "وبدأت": 9434,
      "وأهم": 9435,
      "غب": 9436,
      "الأمريكيين": 9437,
      "للأمم": 9438,
      "بفضل": 9439,
      "لعدة": 9440,
      "وكتب": 9441,
      "800": 9442,
      "تنتشر": 9443,
      "والتن": 9444,
      "شور": 9445,
      "كارل": 9446,
      "حوا": 9447,
      "1959": 9448,
      "استبد": 9449,
      "ign": 9450,
      "أخذت": 9451,
      "الأرجنتين": 9452,
      "ورس": 9453,
      "2022": 9454,
      "موضع": 9455,
      "الإعلان": 9456,
      "لقاب": 9457,
      "53": 9458,
      "منصبه": 9459,
      "تأسس": 9460,
      "دوق": 9461,
      "شقيق": 9462,
      "الفني": 9463,
      "94": 9464,
      "أجن": 9465,
      "عودة": 9466,
      "الزي": 9467,
      "اصطناعي": 9468,
      "ونت": 9469,
      "زابي": 9470,
      "غوط": 9471,
      "تصدر": 9472,
      "تأليف": 9473,
      "وبعدها": 9474,
      "التربة": 9475,
      "الأصوات": 9476,
      "جماع": 9477,
      "السلوك": 9478,
      "الحار": 9479,
      "وسة": 9480,
      "ودخل": 9481,
      "رائم": 9482,
      "ولف": 9483,
      "الباحثين": 9484,
      "العنصر": 9485,
      "فلسطيني": 9486,
      "دراسته": 9487,
      "مزي": 9488,
      "بود": 9489,
      "سيارات": 9490,
      "طه": 9491,
      "درات": 9492,
      "القطبية": 9493,
      "الكيميائي": 9494,
      "َّل": 9495,
      "ثنائية": 9496,
      "ويلة": 9497,
      "إنها": 9498,
      "الوجه": 9499,
      "القصة": 9500,
      "ثين": 9501,
      "الأدبية": 9502,
      "بالان": 9503,
      "لوحة": 9504,
      "وراه": 9505,
      "فج": 9506,
      "لندية": 9507,
      "متا": 9508,
      "المساجد": 9509,
      "اريو": 9510,
      "انتهى": 9511,
      ")؛": 9512,
      "ستيف": 9513,
      "الحاجة": 9514,
      "الكلام": 9515,
      "بولي": 9516,
      "جميل": 9517,
      "طاب": 9518,
      "وائد": 9519,
      "فارقة": 9520,
      "تموز": 9521,
      "داة": 9522,
      "زاوية": 9523,
      "الصغر": 9524,
      "مسرح": 9525,
      "جداً": 9526,
      "تداء": 9527,
      "الجري": 9528,
      "المطاف": 9529,
      "حلقة": 9530,
      "الإداري": 9531,
      "وقوع": 9532,
      "تقلي": 9533,
      "دفاع": 9534,
      "للسنة": 9535,
      "بقوة": 9536,
      "العصبي": 9537,
      "المتحف": 9538,
      "تأتي": 9539,
      "ap": 9540,
      "جنيه": 9541,
      "الغز": 9542,
      "ومغ": 9543,
      "1917": 9544,
      "1940": 9545,
      "نْ": 9546,
      "يمتد": 9547,
      "كيفية": 9548,
      "المرتف": 9549,
      "غاب": 9550,
      "الموارد": 9551,
      "الالت": 9552,
      "المهاجرين": 9553,
      "56": 9554,
      "جبر": 9555,
      "وتضم": 9556,
      "مباريات": 9557,
      "الديانة": 9558,
      "معار": 9559,
      "ثا": 9560,
      "الكهرباء": 9561,
      "المقام": 9562,
      "وزيل": 9563,
      "الاهتمام": 9564,
      "قيب": 9565,
      "منظ": 9566,
      "طلا": 9567,
      "الفصل": 9568,
      "الأمين": 9569,
      "تنتمي": 9570,
      "والولايات": 9571,
      "بطل": 9572,
      "فك": 9573,
      "ومصر": 9574,
      "جزيئات": 9575,
      "والدته": 9576,
      "لمدينة": 9577,
      "وكول": 9578,
      "ess": 9579,
      "التقليدي": 9580,
      "أثير": 9581,
      "اغتيال": 9582,
      "نادق": 9583,
      "الشافعي": 9584,
      "جرا": 9585,
      "حار": 9586,
      "قريش": 9587,
      "تمييز": 9588,
      "لعبة": 9589,
      "يعيشون": 9590,
      "لابن": 9591,
      "شاركت": 9592,
      "فاءة": 9593,
      "الاث": 9594,
      "لجميع": 9595,
      "أمور": 9596,
      "اخ": 9597,
      "87": 9598,
      "مسيرته": 9599,
      "اللاحقة": 9600,
      "زابيث": 9601,
      "الكاتب": 9602,
      "الخوار": 9603,
      "ربيجان": 9604,
      "التقد": 9605,
      "شرقي": 9606,
      "الكبد": 9607,
      "الرسالة": 9608,
      "الإنجليز": 9609,
      "أزمة": 9610,
      "تحط": 9611,
      "وعرض": 9612,
      "التركي": 9613,
      "وجي": 9614,
      "ألفا": 9615,
      "اللعبة": 9616,
      "قدة": 9617,
      "زيمة": 9618,
      "انتشرت": 9619,
      "ديفيد": 9620,
      "الكرد": 9621,
      "باخت": 9622,
      "ay": 9623,
      "هورة": 9624,
      "آدم": 9625,
      "عامر": 9626,
      "كتبه": 9627,
      "يقل": 9628,
      "تقليل": 9629,
      "رود": 9630,
      "ملحو": 9631,
      "وانئ": 9632,
      "السلط": 9633,
      "والعديد": 9634,
      "قاطع": 9635,
      "بنيت": 9636,
      "أوراق": 9637,
      "آب": 9638,
      "مبارك": 9639,
      "كرب": 9640,
      "الحساب": 9641,
      "المنتجات": 9642,
      "ie": 9643,
      "ياط": 9644,
      "سيتم": 9645,
      "الوص": 9646,
      "أعقاب": 9647,
      "العدو": 9648,
      "المسلسل": 9649,
      "السجن": 9650,
      "وبناء": 9651,
      "بطول": 9652,
      "ساي": 9653,
      "المواطنين": 9654,
      "َّد": 9655,
      "الأتراك": 9656,
      "ذوي": 9657,
      "فلون": 9658,
      "الفضل": 9659,
      "يث": 9660,
      "السريع": 9661,
      "وبسبب": 9662,
      "ومنهم": 9663,
      "أعيد": 9664,
      "الأفريقي": 9665,
      "المهدي": 9666,
      "الصورة": 9667,
      "أخبار": 9668,
      "باتجاه": 9669,
      "أنس": 9670,
      "الهادئ": 9671,
      "نجح": 9672,
      "سفية": 9673,
      "للملك": 9674,
      "المبنى": 9675,
      "التنمية": 9676,
      "مصريون": 9677,
      "أسبوع": 9678,
      "بطا": 9679,
      "بنو": 9680,
      "الاتفاق": 9681,
      "الاس": 9682,
      "صدام": 9683,
      "المراكز": 9684,
      "51": 9685,
      "الأنظمة": 9686,
      "والتر": 9687,
      "تدريب": 9688,
      "ماة": 9689,
      "الصناعي": 9690,
      "حضارة": 9691,
      "جدل": 9692,
      "الفرنسيين": 9693,
      "مسألة": 9694,
      "مصرية": 9695,
      "لأكثر": 9696,
      "ولدت": 9697,
      "نتج": 9698,
      "وصفها": 9699,
      "معلومات": 9700,
      "توفير": 9701,
      "واعت": 9702,
      "زيغية": 9703,
      "يمين": 9704,
      "جرام": 9705,
      "الأعظم": 9706,
      "الذرة": 9707,
      "جسر": 9708,
      "نمط": 9709,
      "ht": 9710,
      "واقف": 9711,
      "الحروف": 9712,
      "قرابة": 9713,
      "نار": 9714,
      "وكانوا": 9715,
      "اليهودي": 9716,
      "فيض": 9717,
      "وميد": 9718,
      "ريون": 9719,
      "هزم": 9720,
      "الجامع": 9721,
      "مركبة": 9722,
      "تايل": 9723,
      "الرئا": 9724,
      "الصليبيين": 9725,
      "باعتبارها": 9726,
      "جيع": 9727,
      "سرعان": 9728,
      "المؤمنين": 9729,
      "جغرا": 9730,
      "بنحو": 9731,
      "صدرت": 9732,
      "الأجهزة": 9733,
      "اللازمة": 9734,
      "السم": 9735,
      "الطبق": 9736,
      "بخ": 9737,
      "محلية": 9738,
      "غيره": 9739,
      "أدوات": 9740,
      "السنين": 9741,
      "أسفل": 9742,
      "جيدة": 9743,
      "سفينة": 9744,
      "أقسام": 9745,
      "2021": 9746,
      "جدة": 9747,
      "ارير": 9748,
      "يجد": 9749,
      "السكانية": 9750,
      "سيطرت": 9751,
      "ضول": 9752,
      "فهد": 9753,
      "صفحة": 9754,
      "الدائرة": 9755,
      "1919": 9756,
      "وقي": 9757,
      "نيسان": 9758,
      "شيئا": 9759,
      "اشتهر": 9760,
      "ديوي": 9761,
      "54": 9762,
      "وريين": 9763,
      "الحقبة": 9764,
      "ولهذا": 9765,
      "بطية": 9766,
      "ضعي": 9767,
      "91": 9768,
      "بقايا": 9769,
      "غرس": 9770,
      "المعاصر": 9771,
      "دونيسيا": 9772,
      "سالم": 9773,
      "المعهد": 9774,
      "استخدامها": 9775,
      "والعلوم": 9776,
      "مركبات": 9777,
      "وتسمى": 9778,
      "كوكب": 9779,
      "ph": 9780,
      "مواجهة": 9781,
      "معالم": 9782,
      "الياباني": 9783,
      "السلة": 9784,
      "طبيعي": 9785,
      "التشغيل": 9786,
      "كلين": 9787,
      "النتائج": 9788,
      "نقاط": 9789,
      "مته": 9790,
      "إمكان": 9791,
      "دران": 9792,
      "ستين": 9793,
      "جدار": 9794,
      "ُلطان": 9795,
      "|-": 9796,
      "الميد": 9797,
      "النحاس": 9798,
      "السادات": 9799,
      "قرن": 9800,
      "الكهربائي": 9801,
      "جيشه": 9802,
      "وعاد": 9803,
      "1930": 9804,
      "وأد": 9805,
      "ممارسة": 9806,
      "التط": 9807,
      "ستالين": 9808,
      "فريدري": 9809,
      "يتو": 9810,
      "العنف": 9811,
      "القضايا": 9812,
      "حايا": 9813,
      "حينما": 9814,
      "ويج": 9815,
      "سبت": 9816,
      "التقى": 9817,
      "الفرقة": 9818,
      "وقتها": 9819,
      "المذ": 9820,
      "ضو": 9821,
      "كتلندا": 9822,
      "ايا": 9823,
      "هَ": 9824,
      "الآلهة": 9825,
      "تعرضت": 9826,
      "فقام": 9827,
      "واحدا": 9828,
      "كرر": 9829,
      "تقدير": 9830,
      "السطح": 9831,
      "ولوجي": 9832,
      "رومان": 9833,
      "ستير": 9834,
      "المفر": 9835,
      "تستطيع": 9836,
      "كيلو": 9837,
      "العصبية": 9838,
      "1938": 9839,
      "قلت": 9840,
      "ليوناردو": 9841,
      "المنظمات": 9842,
      "العلوي": 9843,
      "زوجها": 9844,
      "القانونية": 9845,
      "الأنهار": 9846,
      "عرفة": 9847,
      "مئات": 9848,
      "الحضرية": 9849,
      "بالش": 9850,
      "اليومية": 9851,
      "ويقع": 9852,
      "قضاء": 9853,
      "هدات": 9854,
      "ce": 9855,
      "صرح": 9856,
      "أعاد": 9857,
      "تقريبًا": 9858,
      "توم": 9859,
      "لتصبح": 9860,
      "يشبه": 9861,
      "الأميرة": 9862,
      "توقف": 9863,
      "المدني": 9864,
      "وظل": 9865,
      "سافر": 9866,
      "الكواكب": 9867,
      "مركزا": 9868,
      "ّف": 9869,
      "الحربية": 9870,
      "الكهر": 9871,
      "مذهب": 9872,
      "هلاك": 9873,
      "ّت": 9874,
      "النموذج": 9875,
      "ميون": 9876,
      "أقوى": 9877,
      "مسار": 9878,
      "ابتداء": 9879,
      "وجز": 9880,
      "الأمراء": 9881,
      "مريم": 9882,
      "رهاب": 9883,
      "فيهم": 9884,
      "السفر": 9885,
      "صفة": 9886,
      "واسم": 9887,
      "بتون": 9888,
      "قادرة": 9889,
      "النسبية": 9890,
      "تزيد": 9891,
      "مطب": 9892,
      "الحمض": 9893,
      "المرج": 9894,
      "الليبر": 9895,
      "آذار": 9896,
      "حديقة": 9897,
      "كانا": 9898,
      "القادة": 9899,
      "الجيوش": 9900,
      "بسهولة": 9901,
      "الأشعة": 9902,
      "عاماً": 9903,
      "موسكو": 9904,
      "أقيمت": 9905,
      "كفر": 9906,
      "الاستعم": 9907,
      "ميلان": 9908,
      "الإلكترونية": 9909,
      "أعوام": 9910,
      "مايكل": 9911,
      "منخفضة": 9912,
      "بدلاً": 9913,
      "الضو": 9914,
      "وفيها": 9915,
      "1921": 9916,
      "الساحلية": 9917,
      "الموسيقي": 9918,
      "ببعض": 9919,
      "التعامل": 9920,
      "الطفل": 9921,
      "درائية": 9922,
      "أحياء": 9923,
      "المعالم": 9924,
      "صفر": 9925,
      "الألف": 9926,
      "مسلمون": 9927,
      "التونسي": 9928,
      "دُ": 9929,
      "العبيد": 9930,
      "ببناء": 9931,
      "أحيان": 9932,
      "العباس": 9933,
      "بالد": 9934,
      "تغطي": 9935,
      "إرسال": 9936,
      "ِل": 9937,
      "وره": 9938,
      "الساح": 9939,
      "وقيع": 9940,
      "البرون": 9941,
      "المنخفضة": 9942,
      "ديمقراطية": 9943,
      "قوس": 9944,
      "التقدم": 9945,
      "والل": 9946,
      "الضباط": 9947,
      "--": 9948,
      "رضا": 9949,
      "لسنة": 9950,
      "الإل": 9951,
      "الموصل": 9952,
      "انهيار": 9953,
      "لفزيونية": 9954,
      "التصميم": 9955,
      "سجن": 9956,
      "المنصب": 9957,
      "اتصال": 9958,
      "التحت": 9959,
      "صلات": 9960,
      "سيناء": 9961,
      "إدخال": 9962,
      "المرة": 9963,
      "وأرسل": 9964,
      "والجنوب": 9965,
      "وعادة": 9966,
      "الحاضر": 9967,
      "تذكر": 9968,
      "الرئ": 9969,
      "امتياز": 9970,
      "يلول": 9971,
      "المعدنية": 9972,
      "الفلسطينيين": 9973,
      "سرطان": 9974,
      "رياضيات": 9975,
      "بوم": 9976,
      "المريض": 9977,
      "العظ": 9978,
      "السوفيات": 9979,
      "التخ": 9980,
      "الإقليمية": 9981,
      "الهيكل": 9982,
      "راجع": 9983,
      "وتوجد": 9984,
      "ديوان": 9985,
      "الجبلية": 9986,
      "شرطة": 9987,
      "تركيز": 9988,
      "الأوس": 9989,
      "وسجل": 9990,
      "بلقب": 9991,
      "الهرم": 9992,
      "يهود": 9993,
      "مدين": 9994,
      "الرعاية": 9995,
      "تجربة": 9996,
      "بالإنجليزية": 9997,
      "علمية": 9998,
      "طوم": 9999,
      "كُ": 10000,
      "اضطر": 10001,
      "خلافة": 10002,
      "صلاة": 10003,
      "والله": 10004,
      "الأصغر": 10005,
      "الإصدار": 10006,
      "غربية": 10007,
      "مرتبطة": 10008,
      "رِ": 10009,
      "دمج": 10010,
      "انح": 10011,
      "أبد": 10012,
      "الأسب": 10013,
      "زت": 10014,
      "فما": 10015,
      "الولادة": 10016,
      "علامة": 10017,
      "السياحية": 10018,
      "الكل": 10019,
      "1934": 10020,
      "سبانيا": 10021,
      "مستقبل": 10022,
      "مطلع": 10023,
      "130": 10024,
      "القاسم": 10025,
      "تملك": 10026,
      "فاح": 10027,
      "بجانب": 10028,
      "صحة": 10029,
      "بابل": 10030,
      "سندر": 10031,
      "أشعة": 10032,
      "الآية": 10033,
      "تشرشل": 10034,
      "يمتلك": 10035,
      "وذية": 10036,
      "الأدنى": 10037,
      "حدر": 10038,
      "المالي": 10039,
      "تشبه": 10040,
      "البول": 10041,
      "كتبت": 10042,
      "52": 10043,
      "هوت": 10044,
      "سيارة": 10045,
      "فرج": 10046,
      "محاولات": 10047,
      "انتقلت": 10048,
      "السادسة": 10049,
      "فيزياء": 10050,
      "انفص": 10051,
      "وثيقة": 10052,
      "الأصول": 10053,
      "الخروج": 10054,
      "كبرى": 10055,
      "ورانيوم": 10056,
      "ائيات": 10057,
      "بنك": 10058,
      "الملح": 10059,
      "ستاذ": 10060,
      "1922": 10061,
      "تث": 10062,
      "الأردني": 10063,
      "قادر": 10064,
      "أية": 10065,
      "الأجزاء": 10066,
      "يتمتع": 10067,
      "تساعد": 10068,
      "الفيني": 10069,
      "يؤمن": 10070,
      "الخلفاء": 10071,
      "المشاكل": 10072,
      "مادي": 10073,
      "غلبية": 10074,
      "مساعدة": 10075,
      "وشارك": 10076,
      "ّب": 10077,
      "مينيا": 10078,
      "ثيوبيا": 10079,
      "زواج": 10080,
      "فاط": 10081,
      "واه": 10082,
      "معارك": 10083,
      "مييز": 10084,
      "صلا": 10085,
      "إنهاء": 10086,
      "ومعظم": 10087,
      "البلدة": 10088,
      "Ch": 10089,
      "للقوات": 10090,
      "الآرامية": 10091,
      "ميلة": 10092,
      "ويؤ": 10093,
      "الزمني": 10094,
      "الحجاج": 10095,
      "قن": 10096,
      "الأندية": 10097,
      "الحركات": 10098,
      "تخرج": 10099,
      "خلية": 10100,
      "الزمان": 10101,
      "الاتصالات": 10102,
      "والذين": 10103,
      "الاستقرار": 10104,
      "وشة": 10105,
      "تجاوز": 10106,
      "ذاتها": 10107,
      "وأمر": 10108,
      "أعراض": 10109,
      "توقيع": 10110,
      "التعريف": 10111,
      "الوهاب": 10112,
      "ليان": 10113,
      "أثار": 10114,
      "ناها": 10115,
      "الشيوعية": 10116,
      "حديثة": 10117,
      "شرون": 10118,
      "أمت": 10119,
      "الذاتية": 10120,
      "يتمكن": 10121,
      "1944": 10122,
      "يحد": 10123,
      "يستعمل": 10124,
      "المقت": 10125,
      "وقا": 10126,
      "تعزيز": 10127,
      "قالة": 10128,
      "المحر": 10129,
      "القضية": 10130,
      "ورها": 10131,
      "مشترك": 10132,
      "بتر": 10133,
      "الحجري": 10134,
      "1933": 10135,
      "83": 10136,
      "سيون": 10137,
      "نباتات": 10138,
      "لتلك": 10139,
      "موظ": 10140,
      "الشديد": 10141,
      "السريانية": 10142,
      "الباردة": 10143,
      "%،": 10144,
      "برون": 10145,
      "غلال": 10146,
      "89": 10147,
      "دعى": 10148,
      "يكتب": 10149,
      "ليو": 10150,
      "ضاة": 10151,
      "يربط": 10152,
      "العظام": 10153,
      "معدلات": 10154,
      "طري": 10155,
      "المرتبطة": 10156,
      "جامعات": 10157,
      "يعطي": 10158,
      "أظهرت": 10159,
      "الفكرة": 10160,
      "الجلي": 10161,
      "كلما": 10162,
      "63": 10163,
      "ملة": 10164,
      "أنصار": 10165,
      "نيو": 10166,
      "المنصور": 10167,
      "إليزابيث": 10168,
      "أمون": 10169,
      "برئاسة": 10170,
      "جلب": 10171,
      "وراة": 10172,
      "ويلز": 10173,
      "رموز": 10174,
      "اللعب": 10175,
      "البروتينات": 10176,
      "بينه": 10177,
      "الجغرافي": 10178,
      "ينظر": 10179,
      "الطوائف": 10180,
      "قاموا": 10181,
      "أمثال": 10182,
      "فلونزا": 10183,
      "طاء": 10184,
      "فيتنام": 10185,
      "ياسين": 10186,
      "الخبراء": 10187,
      "هيكل": 10188,
      "الشرعية": 10189,
      "شجرة": 10190,
      "طبع": 10191,
      "هشام": 10192,
      "الحرف": 10193,
      "تجري": 10194,
      "قليات": 10195,
      "انش": 10196,
      "ملكية": 10197,
      "بْ": 10198,
      "الصي": 10199,
      "رياضة": 10200,
      "يرت": 10201,
      "الجمهور": 10202,
      "الاعتراف": 10203,
      "دوميني": 10204,
      "كشاف": 10205,
      "ضباط": 10206,
      "ذاهب": 10207,
      "المستوط": 10208,
      "72": 10209,
      "القطب": 10210,
      "ذكرت": 10211,
      "رياضية": 10212,
      "قبرص": 10213,
      "أصوات": 10214,
      "جيكا": 10215,
      "وليد": 10216,
      "الفات": 10217,
      "تسب": 10218,
      "اتفا": 10219,
      "الجهاد": 10220,
      "ألوان": 10221,
      "أهلها": 10222,
      "السوداء": 10223,
      "la": 10224,
      "كجزء": 10225,
      "طرابلس": 10226,
      "مشتركة": 10227,
      "خش": 10228,
      "زيت": 10229,
      "العقيدة": 10230,
      "افتراض": 10231,
      "حزيران": 10232,
      "الأسباب": 10233,
      "اللح": 10234,
      "صيا": 10235,
      "1914": 10236,
      "ذاعة": 10237,
      "الزيتون": 10238,
      "أقر": 10239,
      "طائفة": 10240,
      "التشي": 10241,
      "البنك": 10242,
      "الأهم": 10243,
      "يشار": 10244,
      "قبة": 10245,
      "قديم": 10246,
      "قتين": 10247,
      "أساسية": 10248,
      "التمثيل": 10249,
      "اختراع": 10250,
      "لشركة": 10251,
      "ليش": 10252,
      "القانوني": 10253,
      "المنتج": 10254,
      "الأنس": 10255,
      "61": 10256,
      "المتع": 10257,
      "معسكر": 10258,
      "كاس": 10259,
      "73": 10260,
      "أستاذ": 10261,
      "يصف": 10262,
      "مهد": 10263,
      "الحماية": 10264,
      "وقاز": 10265,
      "قدام": 10266,
      "يًا": 10267,
      "أرمينيا": 10268,
      "غالبًا": 10269,
      "تصر": 10270,
      "فتها": 10271,
      "مستقل": 10272,
      "أشجار": 10273,
      "كاثولي": 10274,
      "التابع": 10275,
      "فرصة": 10276,
      "العبرية": 10277,
      "الأدلة": 10278,
      "التحتية": 10279,
      "نائه": 10280,
      "أطفال": 10281,
      "مقدمة": 10282,
      "عاء": 10283,
      "اده": 10284,
      "مقبرة": 10285,
      "دفن": 10286,
      "كرمة": 10287,
      "جرات": 10288,
      "فينة": 10289,
      "القادر": 10290,
      "الثل": 10291,
      "وأعلن": 10292,
      "المقالات": 10293,
      "حركات": 10294,
      "شفيات": 10295,
      "الأخلاق": 10296,
      "الطبقات": 10297,
      "خن": 10298,
      "أثبت": 10299,
      "هلك": 10300,
      "شستر": 10301,
      "تنص": 10302,
      "اشترا": 10303,
      "كثر": 10304,
      "وديوم": 10305,
      "align": 10306,
      "صنف": 10307,
      "الحصار": 10308,
      "القراءة": 10309,
      "ذن": 10310,
      "المؤسسة": 10311,
      "يأخذ": 10312,
      "التذك": 10313,
      "المستقلة": 10314,
      "ويز": 10315,
      "لتع": 10316,
      "حاجة": 10317,
      "غني": 10318,
      "مناص": 10319,
      "سلطنة": 10320,
      "الطول": 10321,
      "الميث": 10322,
      "هبوط": 10323,
      "التقنية": 10324,
      "اختلف": 10325,
      "المسافة": 10326,
      "المرضى": 10327,
      "العائ": 10328,
      "فسر": 10329,
      "السابعة": 10330,
      "البعث": 10331,
      "ادا": 10332,
      "1951": 10333,
      "ساو": 10334,
      "ئيل": 10335,
      "جبهة": 10336,
      "قِ": 10337,
      "ثلة": 10338,
      "المفا": 10339,
      "سيين": 10340,
      "ub": 10341,
      "راوي": 10342,
      "هدين": 10343,
      "توض": 10344,
      "حائ": 10345,
      "اليس": 10346,
      "تصنيع": 10347,
      "الجزائرية": 10348,
      "الأسواق": 10349,
      "الحقيقية": 10350,
      "كرد": 10351,
      "ولعب": 10352,
      "بابا": 10353,
      "الأنشطة": 10354,
      "إقلي": 10355,
      "سويسرا": 10356,
      "نيت": 10357,
      "ونصف": 10358,
      "مراد": 10359,
      "سورية": 10360,
      "250": 10361,
      "الصهيونية": 10362,
      "المنطق": 10363,
      "جس": 10364,
      "فيز": 10365,
      "ثلاثين": 10366,
      "إضافية": 10367,
      "الشرا": 10368,
      "طوله": 10369,
      "يير": 10370,
      "الأساطير": 10371,
      "عضوية": 10372,
      "ضاع": 10373,
      "انقلاب": 10374,
      "نام": 10375,
      "الفاتي": 10376,
      "بأمر": 10377,
      "المقابل": 10378,
      "حصن": 10379,
      "II": 10380,
      "تشرة": 10381,
      "رْ": 10382,
      "نيفة": 10383,
      "العاملة": 10384,
      "جوا": 10385,
      "مائي": 10386,
      "ركية": 10387,
      "دنا": 10388,
      "الوقود": 10389,
      "يقود": 10390,
      "نهايت": 10391,
      "التشريعية": 10392,
      "وأكبر": 10393,
      "يَّة": 10394,
      "اختصار": 10395,
      "بلوماسية": 10396,
      "تاريخه": 10397,
      "ائيل": 10398,
      "عامين": 10399,
      "بأم": 10400,
      "تنق": 10401,
      "خريجو": 10402,
      "تركيب": 10403,
      "74": 10404,
      "ينتمي": 10405,
      "رائط": 10406,
      "الهاش": 10407,
      "المغناطيسي": 10408,
      "لواء": 10409,
      "للاتحاد": 10410,
      "مْ": 10411,
      "وفى": 10412,
      "موسيقي": 10413,
      "الجماعات": 10414,
      "تربط": 10415,
      "وقامت": 10416,
      "إسرائيلية": 10417,
      "ارها": 10418,
      "ويحت": 10419,
      "وتبلغ": 10420,
      "جَ": 10421,
      "الأعراض": 10422,
      "ائت": 10423,
      "بانت": 10424,
      "بإنشاء": 10425,
      "الأبحاث": 10426,
      "1937": 10427,
      "حسان": 10428,
      "النمط": 10429,
      "ماني": 10430,
      "المعنى": 10431,
      "القيم": 10432,
      "حرار": 10433,
      "الأناضول": 10434,
      "أيلول": 10435,
      "ليني": 10436,
      "الكاثوليك": 10437,
      "بوتر": 10438,
      "الصغرى": 10439,
      "Al": 10440,
      "الأجسام": 10441,
      "كوبا": 10442,
      "الابن": 10443,
      "السائل": 10444,
      "هامة": 10445,
      "مسعود": 10446,
      "بدايات": 10447,
      "وايا": 10448,
      "بولس": 10449,
      "بعدم": 10450,
      "كيلومترا": 10451,
      "جوائز": 10452,
      "سيادة": 10453,
      "الثامنة": 10454,
      "البند": 10455,
[...]
